{
  "version": "1.0",
  "truncation": null,
  "padding": null,
  "added_tokens": [
    {
      "id": 0,
      "content": "<|unk|>",
      "single_word": false,
      "lstrip": false,
      "rstrip": false,
      "normalized": false,
      "special": true
    },
    {
      "id": 1,
      "content": "<|endoftext|>",
      "single_word": false,
      "lstrip": false,
      "rstrip": false,
      "normalized": false,
      "special": true
    }
  ],
  "normalizer": null,
  "pre_tokenizer": {
    "type": "ByteLevel",
    "add_prefix_space": false,
    "trim_offsets": true,
    "use_regex": true
  },
  "post_processor": null,
  "decoder": {
    "type": "ByteLevel",
    "add_prefix_space": true,
    "trim_offsets": true,
    "use_regex": true
  },
  "model": {
    "type": "BPE",
    "dropout": null,
    "unk_token": "<|unk|>",
    "continuing_subword_prefix": null,
    "end_of_word_suffix": null,
    "fuse_unk": false,
    "byte_fallback": false,
    "ignore_merges": false,
    "vocab": {
      "<|unk|>": 0,
      "<|endoftext|>": 1,
      "!": 2,
      "\"": 3,
      "#": 4,
      "$": 5,
      "%": 6,
      "&": 7,
      "'": 8,
      "(": 9,
      ")": 10,
      "*": 11,
      "+": 12,
      ",": 13,
      "-": 14,
      ".": 15,
      "/": 16,
      "0": 17,
      "1": 18,
      "2": 19,
      "3": 20,
      "4": 21,
      "5": 22,
      "6": 23,
      "7": 24,
      "8": 25,
      "9": 26,
      ":": 27,
      ";": 28,
      "<": 29,
      "=": 30,
      ">": 31,
      "?": 32,
      "@": 33,
      "A": 34,
      "B": 35,
      "C": 36,
      "D": 37,
      "E": 38,
      "F": 39,
      "G": 40,
      "H": 41,
      "I": 42,
      "J": 43,
      "K": 44,
      "L": 45,
      "M": 46,
      "N": 47,
      "O": 48,
      "P": 49,
      "Q": 50,
      "R": 51,
      "S": 52,
      "T": 53,
      "U": 54,
      "V": 55,
      "W": 56,
      "X": 57,
      "Y": 58,
      "Z": 59,
      "[": 60,
      "\\": 61,
      "]": 62,
      "^": 63,
      "_": 64,
      "`": 65,
      "a": 66,
      "b": 67,
      "c": 68,
      "d": 69,
      "e": 70,
      "f": 71,
      "g": 72,
      "h": 73,
      "i": 74,
      "j": 75,
      "k": 76,
      "l": 77,
      "m": 78,
      "n": 79,
      "o": 80,
      "p": 81,
      "q": 82,
      "r": 83,
      "s": 84,
      "t": 85,
      "u": 86,
      "v": 87,
      "w": 88,
      "x": 89,
      "y": 90,
      "z": 91,
      "{": 92,
      "|": 93,
      "}": 94,
      "~": 95,
      "¡": 96,
      "¢": 97,
      "£": 98,
      "¤": 99,
      "¥": 100,
      "¦": 101,
      "§": 102,
      "¨": 103,
      "©": 104,
      "ª": 105,
      "«": 106,
      "¬": 107,
      "®": 108,
      "¯": 109,
      "°": 110,
      "±": 111,
      "²": 112,
      "³": 113,
      "´": 114,
      "µ": 115,
      "¶": 116,
      "·": 117,
      "¸": 118,
      "¹": 119,
      "º": 120,
      "»": 121,
      "¼": 122,
      "½": 123,
      "¾": 124,
      "¿": 125,
      "À": 126,
      "Á": 127,
      "Â": 128,
      "Ã": 129,
      "Ä": 130,
      "Å": 131,
      "Æ": 132,
      "Ç": 133,
      "È": 134,
      "É": 135,
      "Ê": 136,
      "Ë": 137,
      "Ì": 138,
      "Í": 139,
      "Î": 140,
      "Ï": 141,
      "Ð": 142,
      "Ñ": 143,
      "Ò": 144,
      "Ó": 145,
      "Ô": 146,
      "Õ": 147,
      "Ö": 148,
      "×": 149,
      "Ø": 150,
      "Ù": 151,
      "Ú": 152,
      "Û": 153,
      "Ü": 154,
      "Ý": 155,
      "Þ": 156,
      "ß": 157,
      "à": 158,
      "á": 159,
      "â": 160,
      "ã": 161,
      "ä": 162,
      "å": 163,
      "æ": 164,
      "ç": 165,
      "è": 166,
      "é": 167,
      "ê": 168,
      "ë": 169,
      "ì": 170,
      "í": 171,
      "î": 172,
      "ï": 173,
      "ð": 174,
      "ñ": 175,
      "ò": 176,
      "ó": 177,
      "ô": 178,
      "õ": 179,
      "ö": 180,
      "÷": 181,
      "ø": 182,
      "ù": 183,
      "ú": 184,
      "û": 185,
      "ü": 186,
      "ý": 187,
      "þ": 188,
      "ÿ": 189,
      "Ā": 190,
      "ā": 191,
      "Ă": 192,
      "ă": 193,
      "Ą": 194,
      "ą": 195,
      "Ć": 196,
      "ć": 197,
      "Ĉ": 198,
      "ĉ": 199,
      "Ċ": 200,
      "ċ": 201,
      "Č": 202,
      "č": 203,
      "Ď": 204,
      "ď": 205,
      "Đ": 206,
      "đ": 207,
      "Ē": 208,
      "ē": 209,
      "Ĕ": 210,
      "ĕ": 211,
      "Ė": 212,
      "ė": 213,
      "Ę": 214,
      "ę": 215,
      "Ě": 216,
      "ě": 217,
      "Ĝ": 218,
      "ĝ": 219,
      "Ğ": 220,
      "ğ": 221,
      "Ġ": 222,
      "ġ": 223,
      "Ģ": 224,
      "ģ": 225,
      "Ĥ": 226,
      "ĥ": 227,
      "Ħ": 228,
      "ħ": 229,
      "Ĩ": 230,
      "ĩ": 231,
      "Ī": 232,
      "ī": 233,
      "Ĭ": 234,
      "ĭ": 235,
      "Į": 236,
      "į": 237,
      "İ": 238,
      "ı": 239,
      "Ĳ": 240,
      "ĳ": 241,
      "Ĵ": 242,
      "ĵ": 243,
      "Ķ": 244,
      "ķ": 245,
      "ĸ": 246,
      "Ĺ": 247,
      "ĺ": 248,
      "Ļ": 249,
      "ļ": 250,
      "Ľ": 251,
      "ľ": 252,
      "Ŀ": 253,
      "ŀ": 254,
      "Ł": 255,
      "ł": 256,
      "Ń": 257,
      "ĠĠ": 258,
      "Ġt": 259,
      "he": 260,
      "ĠĠĠ": 261,
      "Ġa": 262,
      "ĠĠĠĠ": 263,
      "ou": 264,
      "Ġs": 265,
      "in": 266,
      "Ġm": 267,
      "Ġw": 268,
      "re": 269,
      "ha": 270,
      "nd": 271,
      "Ġthe": 272,
      "Ġb": 273,
      "is": 274,
      "er": 275,
      "or": 276,
      "ĠI": 277,
      "Ġf": 278,
      "ll": 279,
      "Ġo": 280,
      "it": 281,
      "ĠĠĠĠĠĠĠĠ": 282,
      "Ġd": 283,
      "Ġc": 284,
      "es": 285,
      "Ġl": 286,
      "on": 287,
      "Ġy": 288,
      "Ġn": 289,
      "ĠT": 290,
      "Ġth": 291,
      "en": 292,
      "ar": 293,
      "Ġh": 294,
      "ĠA": 295,
      "Ġyou": 296,
      "Ġp": 297,
      "Ġto": 298,
      "Ġand": 299,
      "hat": 300,
      "Ġof": 301,
      "Ġhe": 302,
      "ot": 303,
      "an": 304,
      "ve": 305,
      "ing": 306,
      "ow": 307,
      "om": 308,
      "Ġg": 309,
      "st": 310,
      "ĠW": 311,
      "at": 312,
      "Ġbe": 313,
      "Ġin": 314,
      "se": 315,
      "ĠS": 316,
      "ce": 317,
      "Ġha": 318,
      "Ġmy": 319,
      "et": 320,
      "ĠB": 321,
      "ĠC": 322,
      "le": 323,
      "ay": 324,
      "ld": 325,
      "ĠH": 326,
      "ut": 327,
      "Ġme": 328,
      "ĠM": 329,
      "ith": 330,
      "ir": 331,
      "im": 332,
      "ĠO": 333,
      "'d": 334,
      "ch": 335,
      "Ġnot": 336,
      "ed": 337,
      "Ġis": 338,
      "gh": 339,
      "'s": 340,
      "ill": 341,
      "Ġthat": 342,
      "Ġe": 343,
      "Ġfor": 344,
      "oo": 345,
      "ĠF": 346,
      "ĠP": 347,
      "ĠĠĠĠĠĠĠĠĠĠĠĠĠĠĠĠ": 348,
      "ke": 349,
      "ĠE": 350,
      "our": 351,
      "ĠAnd": 352,
      "Ġu": 353,
      "Ġwith": 354,
      "Ġwe": 355,
      "ĠL": 356,
      "ent": 357,
      "Ġit": 358,
      "ad": 359,
      "as": 360,
      "Ġyour": 361,
      "id": 362,
      "ĠThe": 363,
      "al": 364,
      "ter": 365,
      "her": 366,
      "Ġhis": 367,
      "ER": 368,
      "Ġst": 369,
      "ri": 370,
      "ĠG": 371,
      "Ġthou": 372,
      "ra": 373,
      "ĠD": 374,
      "Ġhim": 375,
      "ght": 376,
      "Ġthis": 377,
      "Ġre": 378,
      "Ġhave": 379,
      "ome": 380,
      "ord": 381,
      "ly": 382,
      "Ġso": 383,
      "ur": 384,
      "Ġon": 385,
      "Ġli": 386,
      "Ġas": 387,
      "Ġk": 388,
      "US": 389,
      "ver": 390,
      "EN": 391,
      "ĠN": 392,
      "ore": 393,
      "ould": 394,
      "IN": 395,
      "Ġde": 396,
      "ain": 397,
      "Ġdo": 398,
      "Ġwill": 399,
      "ro": 400,
      "am": 401,
      "ood": 402,
      "us": 403,
      "hi": 404,
      "ck": 405,
      "ES": 406,
      "Ġsha": 407,
      "ON": 408,
      "Ġse": 409,
      "ion": 410,
      "AR": 411,
      "ess": 412,
      "est": 413,
      "ĠY": 414,
      "AN": 415,
      "ea": 416,
      "Ġher": 417,
      "Ġan": 418,
      "Ġthy": 419,
      "Ġ'": 420,
      "ĠR": 421,
      "Ġlo": 422,
      "Ġno": 423,
      "Ġbut": 424,
      "OR": 425,
      "nt": 426,
      "ge": 427,
      "Ġsu": 428,
      "and": 429,
      "ĠK": 430,
      "Ġall": 431,
      "ĠTh": 432,
      "ru": 433,
      "il": 434,
      "th": 435,
      "ake": 436,
      "if": 437,
      "ear": 438,
      "Ġsp": 439,
      "ell": 440,
      "Ġfa": 441,
      "ĠTo": 442,
      "ct": 443,
      "Ġkn": 444,
      "Ġshall": 445,
      "Ġthee": 446,
      "Ġv": 447,
      "Ġare": 448,
      "ight": 449,
      "han": 450,
      "Ġsh": 451,
      "rom": 452,
      "ĠThat": 453,
      "ST": 454,
      "ast": 455,
      "Ġby": 456,
      "Ġour": 457,
      "ard": 458,
      "Ġman": 459,
      "ho": 460,
      "Ġne": 461,
      "art": 462,
      "Ġat": 463,
      "end": 464,
      "ine": 465,
      "Ġam": 466,
      "ant": 467,
      "ĠBut": 468,
      "ous": 469,
      "ĠHe": 470,
      "Ġup": 471,
      "Ġcom": 472,
      "ĠWhat": 473,
      "Ġmu": 474,
      "LL": 475,
      "Ġlord": 476,
      "out": 477,
      "sel": 478,
      "Ġgood": 479,
      "Ġcon": 480,
      "'ll": 481,
      "qu": 482,
      "one": 483,
      "ie": 484,
      "res": 485,
      "Ġwhe": 486,
      "ul": 487,
      "ind": 488,
      "Ġgo": 489,
      "ive": 490,
      "hich": 491,
      "em": 492,
      "Ġwhat": 493,
      "Ġfrom": 494,
      "ong": 495,
      "ble": 496,
      "ry": 497,
      "ers": 498,
      "ven": 499,
      "Ġknow": 500,
      "nter": 501,
      "Ġthem": 502,
      "Ġshe": 503,
      "Ġlove": 504,
      "row": 505,
      "Ġwould": 506,
      "Ġsw": 507,
      "au": 508,
      "Ġwas": 509,
      "IO": 510,
      "Ġbl": 511,
      "oth": 512,
      "TH": 513,
      "Ġmore": 514,
      "IC": 515,
      "ic": 516,
      "AL": 517,
      "Ġ[": 518,
      "Ġpr": 519,
      "Ġcan": 520,
      "Ġthere": 521,
      "ath": 522,
      "Ġhat": 523,
      "ĠFor": 524,
      "pp": 525,
      "Ġnow": 526,
      "ĠĠĠĠĠ": 527,
      "ĠEx": 528,
      "Ġtheir": 529,
      "all": 530,
      "ep": 531,
      "ost": 532,
      "Ġor": 533,
      "Ġthey": 534,
      "fe": 535,
      "ol": 536,
      "Ġwor": 537,
      "Ġthan": 538,
      "UC": 539,
      "Ġar": 540,
      "Ġsir": 541,
      "self": 542,
      "ure": 543,
      "ate": 544,
      "Ġif": 545,
      "Ġsay": 546,
      "Ġus": 547,
      "Ġlet": 548,
      "ink": 549,
      "ING": 550,
      "ue": 551,
      "Ġhere": 552,
      "ish": 553,
      "ĠWhe": 554,
      "RO": 555,
      "ĠJ": 556,
      "LE": 557,
      "ng": 558,
      "IA": 559,
      "ĠMy": 560,
      "el": 561,
      "ĠYou": 562,
      "reat": 563,
      "Ġr": 564,
      "other": 565,
      "hy": 566,
      "ĠAN": 567,
      "Ġwell": 568,
      "ĠIf": 569,
      "Ġhath": 570,
      "um": 571,
      "ED": 572,
      "OL": 573,
      "ves": 574,
      "are": 575,
      "ĠCO": 576,
      "ather": 577,
      "fore": 578,
      "ook": 579,
      "od": 580,
      "Ġpl": 581,
      "ak": 582,
      "Ġsee": 583,
      "ame": 584,
      "Ġthen": 585,
      "IUS": 586,
      "ig": 587,
      "Ġone": 588,
      "ort": 589,
      "Ġbr": 590,
      "Ġj": 591,
      "Ġlike": 592,
      "Ġcome": 593,
      "ound": 594,
      "ĠV": 595,
      "Ġshould": 596,
      "Ġdid": 597,
      "ĠOF": 598,
      "Ġun": 599,
      "Ġmay": 600,
      "ĠAs": 601,
      "Ġmad": 602,
      "ance": 603,
      "Ġmake": 604,
      "gain": 605,
      "Ġdis": 606,
      "Ġho": 607,
      "Ġout": 608,
      "ĠĠĠĠĠĠĠĠĠĠĠĠĠĠĠĠĠĠĠĠĠĠĠĠĠĠĠĠĠĠĠĠ": 609,
      "eak": 610,
      "Ġupon": 611,
      "ide": 612,
      "LO": 613,
      "ice": 614,
      "Ġwhich": 615,
      "Ġsa": 616,
      "Ġmust": 617,
      "Ġwere": 618,
      "un": 619,
      "very": 620,
      "UT": 621,
      "ĠEnter": 622,
      "ĠĠĠĠĠĠĠĠĠĠĠĠ": 623,
      "Ġhad": 624,
      "Ġtru": 625,
      "ĠKING": 626,
      "pe": 627,
      "Ġqu": 628,
      "ity": 629,
      "Ġtoo": 630,
      "ime": 631,
      "Ġpro": 632,
      "ĠKing": 633,
      "pt": 634,
      "IR": 635,
      "ence": 636,
      "ther": 637,
      "Ġheart": 638,
      "unt": 639,
      "orn": 640,
      "Ġwhen": 641,
      "Ġhand": 642,
      "Ġsuch": 643,
      "ies": 644,
      "ĠBe": 645,
      "Ġpo": 646,
      "Ġhon": 647,
      "Ġen": 648,
      "ĠIn": 649,
      "Ġex": 650,
      "IB": 651,
      "Ġagain": 652,
      "ĠWhy": 653,
      "ĠHow": 654,
      "ERS": 655,
      "Ġal": 656,
      "ĠThou": 657,
      "IS": 658,
      "ness": 659,
      "Ġspeak": 660,
      "ond": 661,
      "ave": 662,
      "Ġey": 663,
      "ĠWith": 664,
      "ĠThis": 665,
      "wn": 666,
      "ff": 667,
      "ince": 668,
      "Ġyet": 669,
      "TR": 670,
      "ĠSo": 671,
      "ise": 672,
      "Ġoff": 673,
      "ose": 674,
      "ass": 675,
      "ick": 676,
      "Ġsome": 677,
      "ire": 678,
      "Ġwho": 679,
      "ist": 680,
      "ĠNo": 681,
      "ady": 682,
      "ĠWe": 683,
      "AC": 684,
      "Ġthese": 685,
      "Ġfri": 686,
      "Ġthink": 687,
      "Ġfather": 688,
      "ci": 689,
      "Ġfo": 690,
      "Ġmine": 691,
      "ARD": 692,
      "eet": 693,
      "urn": 694,
      "'t": 695,
      "ack": 696,
      "Ġab": 697,
      "oy": 698,
      "ings": 699,
      "Ġgreat": 700,
      "own": 701,
      "ĠQ": 702,
      "age": 703,
      "Ġhow": 704,
      "eunt": 705,
      "ĠU": 706,
      "ĠIt": 707,
      "ĠĠĠĠĠĠĠĠĠĠĠĠĠĠĠĠĠĠĠĠ": 708,
      "Ġhea": 709,
      "Ġgive": 710,
      "Ġtime": 711,
      "Ġcha": 712,
      "Ġtake": 713,
      "ĠOf": 714,
      "Ġmuch": 715,
      "ĠPr": 716,
      "Ġtw": 717,
      "Ġmost": 718,
      "ĠThere": 719,
      "way": 720,
      "ĠIs": 721,
      "Ġfriend": 722,
      "ag": 723,
      "ĠExeunt": 724,
      "ation": 725,
      "aster": 726,
      "entle": 727,
      "ful": 728,
      "Ġtell": 729,
      "ĠWho": 730,
      "Ġmar": 731,
      "Ġday": 732,
      "ĠCome": 733,
      "ĠLet": 734,
      "Ġbet": 735,
      "Ġwhere": 736,
      "Ġbre": 737,
      "INE": 738,
      "Ġro": 739,
      "ESS": 740,
      "IST": 741,
      "Ġfl": 742,
      "ree": 743,
      "Ġgra": 744,
      "AD": 745,
      "Ġhear": 746,
      "Ġle": 747,
      "ert": 748,
      "os": 749,
      "ap": 750,
      "Ġdes": 751,
      "Ġmen": 752,
      "ĠTH": 753,
      "Ġlea": 754,
      "ust": 755,
      "Ġlook": 756,
      "Ġword": 757,
      "Ġnever": 758,
      "Ġart": 759,
      "EC": 760,
      "Ġpart": 761,
      "ĠWhich": 762,
      "Ġblood": 763,
      "io": 764,
      "ign": 765,
      "ull": 766,
      "Ġother": 767,
      "ress": 768,
      "IT": 769,
      "ither": 770,
      "ĠFOR": 771,
      "Ġdeath": 772,
      "UR": 773,
      "ĠWhen": 774,
      "Ġlife": 775,
      "li": 776,
      "ough": 777,
      "Ġwr": 778,
      "ool": 779,
      "ĠWhere": 780,
      "Ġson": 781,
      "ount": 782,
      "Ġear": 783,
      "Ġser": 784,
      "ĠPRO": 785,
      "Ġgentle": 786,
      "Ġint": 787,
      "ase": 788,
      "ment": 789,
      "ĠExit": 790,
      "ĠOR": 791,
      "igh": 792,
      "Ġtr": 793,
      "oul": 794,
      "ĠGod": 795,
      "Ġsc": 796,
      "Ġfear": 797,
      "Ġfair": 798,
      "Ġri": 799,
      "ĠBy": 800,
      "EL": 801,
      "Ġdoth": 802,
      "ĠSir": 803,
      "Ġple": 804,
      "ANT": 805,
      "ION": 806,
      "tle": 807,
      "EM": 808,
      "Ġany": 809,
      "ace": 810,
      "ĠCA": 811,
      "ward": 812,
      "Ġcomm": 813,
      "Ġown": 814,
      "ite": 815,
      "Ġwar": 816,
      "ĠNow": 817,
      "Ġhonour": 818,
      "tis": 819,
      "ĠAR": 820,
      "FF": 821,
      "Ġcl": 822,
      "not": 823,
      "Ġad": 824,
      "ans": 825,
      "ces": 826,
      "hing": 827,
      "Ġper": 828,
      "Ġsweet": 829,
      "ENE": 830,
      "eed": 831,
      "ĠOr": 832,
      "Ġra": 833,
      "Ġvery": 834,
      "AND": 835,
      "Ġmade": 836,
      "Ġtrue": 837,
      "ELL": 838,
      "Ġheaven": 839,
      "ee": 840,
      "PH": 841,
      "Ġcall": 842,
      "IAN": 843,
      "ĠMar": 844,
      "nce": 845,
      "Ġnight": 846,
      "ud": 847,
      "rown": 848,
      "land": 849,
      "GE": 850,
      "TE": 851,
      "ft": 852,
      "Ġco": 853,
      "ĠDo": 854,
      "Ġwh": 855,
      "Ġapp": 856,
      "ĠLord": 857,
      "OW": 858,
      "Ġcannot": 859,
      "Ġke": 860,
      "llow": 861,
      "Ġhast": 862,
      "ction": 863,
      "Ġaf": 864,
      "augh": 865,
      "nder": 866,
      "KE": 867,
      "Ġpre": 868,
      "able": 869,
      "Ġwit": 870,
      "Ġworld": 871,
      "ISTR": 872,
      "AT": 873,
      "ouse": 874,
      "ber": 875,
      "Ġpray": 876,
      "ĠAND": 877,
      "per": 878,
      "ĠThen": 879,
      "Ġeyes": 880,
      "ving": 881,
      "AB": 882,
      "Ġbeen": 883,
      "Ġstr": 884,
      "ove": 885,
      "ĠHere": 886,
      "CE": 887,
      "Ġaway": 888,
      "sw": 889,
      "Ġcour": 890,
      "les": 891,
      "man": 892,
      "Ġbrother": 893,
      "ID": 894,
      "cc": 895,
      "ĠAy": 896,
      "Ġim": 897,
      "ock": 898,
      "Ġbear": 899,
      "TER": 900,
      "ĠYour": 901,
      "Ġcomp": 902,
      "Ġdown": 903,
      "orrow": 904,
      "Ġdone": 905,
      "ĠSt": 906,
      "CENE": 907,
      "Ġname": 908,
      "ĠBY": 909,
      "ĠCOP": 910,
      "IBUT": 911,
      "ISTRIBUT": 912,
      "che": 913,
      "Ġhead": 914,
      "red": 915,
      "Ġru": 916,
      "Ġnor": 917,
      "HA": 918,
      "Tis": 919,
      "Ġwom": 920,
      "Ġway": 921,
      "Ġstand": 922,
      "Ġla": 923,
      "Ġtwo": 924,
      "ife": 925,
      "IM": 926,
      "ĠDU": 927,
      "aint": 928,
      "Ġever": 929,
      "Ġold": 930,
      "Ġbefore": 931,
      "ORD": 932,
      "Ġcont": 933,
      "ss": 934,
      "ĠSha": 935,
      "Ġmight": 936,
      "Enter": 937,
      "ĠCa": 938,
      "IRST": 939,
      "Ġpres": 940,
      "ĠFIRST": 941,
      "Ġlady": 942,
      "Ġthought": 943,
      "Ġleave": 944,
      "IL": 945,
      "Ġfool": 946,
      "Ġnoble": 947,
      "Ġnew": 948,
      "Ġarm": 949,
      "Ġsl": 950,
      "ĠIS": 951,
      "uke": 952,
      "Ġthus": 953,
      "Ġ(": 954,
      "UCH": 955,
      "ks": 956,
      "ĠĠĠĠĠĠĠĠĠĠĠĠĠĠĠĠĠĠĠĠĠĠĠĠ": 957,
      "ĠRe": 958,
      "Ġcomes": 959,
      "iss": 960,
      "Ġcould": 961,
      "Ġbeg": 962,
      "Ġrem": 963,
      "Ġlong": 964,
      "ĠWell": 965,
      "ENT": 966,
      "ef": 967,
      "ps": 968,
      "ason": 969,
      "ause": 970,
      "OM": 971,
      "Ġbetter": 972,
      "ĠAn": 973,
      "ĠGo": 974,
      "less": 975,
      "ILL": 976,
      "Ġpur": 977,
      "atch": 978,
      "irst": 979,
      "ears": 980,
      "Ġsoul": 981,
      "aughter": 982,
      "Ġhar": 983,
      "ĠWill": 984,
      "ĠQU": 985,
      "Ġshow": 986,
      "ach": 987,
      "ple": 988,
      "Ġhouse": 989,
      "atter": 990,
      "Ġpoor": 991,
      "Ġfind": 992,
      "ang": 993,
      "ERV": 994,
      "Ġinto": 995,
      "we": 996,
      "Ġdead": 997,
      "eace": 998,
      "ew": 999,
      "ors": 1000,
      "SS": 1001,
      "ĠGood": 1002,
      "Ġbest": 1003,
      "ĠAl": 1004,
      "ĠDuke": 1005,
      "Ġbeing": 1006,
      "ious": 1007,
      "ia": 1008,
      "Ġnothing": 1009,
      "Ġkeep": 1010,
      "Ġrep": 1011,
      "ought": 1012,
      "Ġmer": 1013,
      "Ġking": 1014,
      "ower": 1015,
      "Ġend": 1016,
      "ĠCl": 1017,
      "ĠShe": 1018,
      "Ġmany": 1019,
      "Ġent": 1020,
      "ĠHis": 1021,
      "ĠCOM": 1022,
      "come": 1023,
      "ĠDUKE": 1024,
      "Ġboth": 1025,
      "ĠANT": 1026,
      "Ġserv": 1027,
      "cy": 1028,
      "ty": 1029,
      "ĠCH": 1030,
      "Ġlive": 1031,
      "ius": 1032,
      "tun": 1033,
      "nto": 1034,
      "Ġgl": 1035,
      "ĠNay": 1036,
      "Ġbra": 1037,
      "ĠThan": 1038,
      "Ġevery": 1039,
      "ĠThey": 1040,
      "akes": 1041,
      "MER": 1042,
      "ĠNor": 1043,
      "Ġfell": 1044,
      "Ġmyself": 1045,
      "ĠMAC": 1046,
      "Ġput": 1047,
      "ds": 1048,
      "ied": 1049,
      "Ġmaster": 1050,
      "rance": 1051,
      "ĠOTH": 1052,
      "Ġstill": 1053,
      "OND": 1054,
      "Ġfriends": 1055,
      "lf": 1056,
      "ian": 1057,
      "Ġind": 1058,
      "eth": 1059,
      "uck": 1060,
      "YR": 1061,
      "ier": 1062,
      "Ġsm": 1063,
      "ĠEng": 1064,
      "Ġwife": 1065,
      "ins": 1066,
      "hip": 1067,
      "ĠNot": 1068,
      "BER": 1069,
      "ittle": 1070,
      "old": 1071,
      "Ġfollow": 1072,
      "Ġtong": 1073,
      "ĠMAR": 1074,
      "PE": 1075,
      "me": 1076,
      "mp": 1077,
      "vil": 1078,
      "Ġset": 1079,
      "Ġlie": 1080,
      "ESTER": 1081,
      "ren": 1082,
      "Ġdaughter": 1083,
      "ORK": 1084,
      "Ġnat": 1085,
      "ĠPrince": 1086,
      "rant": 1087,
      "Ġlittle": 1088,
      "IES": 1089,
      "ĠHam": 1090,
      "ĠTIM": 1091,
      "race": 1092,
      "ĠANTON": 1093,
      "ĠLUC": 1094,
      "ĠShall": 1095,
      "ĠEd": 1096,
      "ĠRome": 1097,
      "Ġhold": 1098,
      "ile": 1099,
      "Ġfirst": 1100,
      "ĠOn": 1101,
      "Ġthose": 1102,
      "Ġhour": 1103,
      "Ġdear": 1104,
      "ECOND": 1105,
      "men": 1106,
      "esar": 1107,
      "cl": 1108,
      "Ġsle": 1109,
      "well": 1110,
      "Ġyoung": 1111,
      "Ġconf": 1112,
      "ET": 1113,
      "Ġlords": 1114,
      "ĠLORD": 1115,
      "Ġagainst": 1116,
      "NC": 1117,
      "ac": 1118,
      "Ġdie": 1119,
      "Ġcons": 1120,
      "uth": 1121,
      "ield": 1122,
      "int": 1123,
      "ĠBr": 1124,
      "Ġansw": 1125,
      ".'": 1126,
      "Ġgu": 1127,
      "Ġgone": 1128,
      "ĠSECOND": 1129,
      "LY": 1130,
      "its": 1131,
      "ark": 1132,
      "ĠHave": 1133,
      "ons": 1134,
      "Ġma": 1135,
      "Ġchi": 1136,
      "USE": 1137,
      "alk": 1138,
      "ONIC": 1139,
      "bl": 1140,
      "ĠHer": 1141,
      "Ġtra": 1142,
      "Ġhimself": 1143,
      "Ġrest": 1144,
      "Ġeye": 1145,
      "99": 1146,
      "ret": 1147,
      "Ġel": 1148,
      "ĠELE": 1149,
      "ilt": 1150,
      "UCESTER": 1151,
      "LOUCESTER": 1152,
      "ĠCaesar": 1153,
      "for": 1154,
      "lt": 1155,
      "Ġthine": 1156,
      "ĠAt": 1157,
      "Ġplace": 1158,
      "199": 1159,
      "CTR": 1160,
      "Ġmind": 1161,
      "ĠINC": 1162,
      "ĠDISTRIBUT": 1163,
      "ĠARE": 1164,
      "ĠCOPIES": 1165,
      "MERC": 1166,
      "ĠELECTR": 1167,
      "ĠELECTRONIC": 1168,
      "ĠGLOUCESTER": 1169,
      "iness": 1170,
      "EEN": 1171,
      "ĠRO": 1172,
      "Ġch": 1173,
      "Ġatt": 1174,
      "Ġcourt": 1175,
      "iv": 1176,
      "Ġboy": 1177,
      "Ġfall": 1178,
      "Ġworth": 1179,
      "Ġwoman": 1180,
      "Ġplay": 1181,
      "AG": 1182,
      "Ġpass": 1183,
      "Ġface": 1184,
      "oud": 1185,
      "ens": 1186,
      "esty": 1187,
      "ĠYet": 1188,
      "Ġstay": 1189,
      "Ġsword": 1190,
      "LI": 1191,
      "istress": 1192,
      "Ġkind": 1193,
      "Ġtill": 1194,
      "Ġtri": 1195,
      "Ġmother": 1196,
      "har": 1197,
      "led": 1198,
      "get": 1199,
      "Ġnone": 1200,
      "Ġgri": 1201,
      "ĠQUEEN": 1202,
      "Ġtongue": 1203,
      "uty": 1204,
      "ĠThy": 1205,
      "ĠPA": 1206,
      "ĠAll": 1207,
      "Ġpeace": 1208,
      "Ġwords": 1209,
      "Ġafter": 1210,
      "Ġanswer": 1211,
      "CH": 1212,
      "UN": 1213,
      "Ġchar": 1214,
      "ison": 1215,
      "Ġfull": 1216,
      "ows": 1217,
      "Ġgi": 1218,
      "irt": 1219,
      "Ġpresent": 1220,
      "ect": 1221,
      "Ġcur": 1222,
      "ĠFrance": 1223,
      "Ġturn": 1224,
      "Ġob": 1225,
      "Ġpe": 1226,
      "Ġres": 1227,
      "SCENE": 1228,
      "Ġhus": 1229,
      "Ġelse": 1230,
      "ab": 1231,
      "ĠAnt": 1232,
      "Ġfortun": 1233,
      "Ġbring": 1234,
      "Ġunder": 1235,
      "Ġthough": 1236,
      "Ġimp": 1237,
      "Ġche": 1238,
      "OWN": 1239,
      "RY": 1240,
      "OT": 1241,
      "Ġdra": 1242,
      "Ġforth": 1243,
      "Ġright": 1244,
      "AM": 1245,
      "ĠOur": 1246,
      "Ġneed": 1247,
      "ition": 1248,
      "sand": 1249,
      "Ġback": 1250,
      "ult": 1251,
      "ĠJo": 1252,
      "Ġcount": 1253,
      "ĠCLO": 1254,
      "ICK": 1255,
      "Ġtre": 1256,
      "Ġbel": 1257,
      "Ġspir": 1258,
      "ENRY": 1259,
      "ĠHENRY": 1260,
      "Ġseem": 1261,
      "Ġmean": 1262,
      "Ġwhose": 1263,
      "ĠQue": 1264,
      "ale": 1265,
      "Ġmatter": 1266,
      "Ġcrown": 1267,
      "Ġmeet": 1268,
      "AFF": 1269,
      "band": 1270,
      "Ġacc": 1271,
      "Ġpri": 1272,
      "Ġsaid": 1273,
      "ĠQueen": 1274,
      "UM": 1275,
      "ICH": 1276,
      "OST": 1277,
      "Ġchan": 1278,
      "asure": 1279,
      "Ġonce": 1280,
      "Ġwrong": 1281,
      "Ġsub": 1282,
      "AST": 1283,
      "ĠRICH": 1284,
      "Ġvill": 1285,
      "eech": 1286,
      "ĠBR": 1287,
      "Ġanother": 1288,
      "Ġchild": 1289,
      "Ġreason": 1290,
      "Ġletter": 1291,
      "Ġbid": 1292,
      "IG": 1293,
      "Ġfaith": 1294,
      "Ġhum": 1295,
      "ĠUp": 1296,
      "Ġhusband": 1297,
      "Ġpra": 1298,
      "Ġret": 1299,
      "OP": 1300,
      "ail": 1301,
      "ix": 1302,
      "lp": 1303,
      "side": 1304,
      "Ġtherefore": 1305,
      "hile": 1306,
      "Ġhope": 1307,
      "ĠCHAR": 1308,
      "hn": 1309,
      "Ġsold": 1310,
      "orse": 1311,
      "Ġunto": 1312,
      "ried": 1313,
      "Ġthing": 1314,
      "STAFF": 1315,
      "ALSTAFF": 1316,
      "Ġearth": 1317,
      "Ġover": 1318,
      "Ġcou": 1319,
      "ont": 1320,
      "Ġthree": 1321,
      "ĠFALSTAFF": 1322,
      "Ġindeed": 1323,
      "Ġdre": 1324,
      "Ġbes": 1325,
      "Ġfal": 1326,
      "Ġthr": 1327,
      "Ġabout": 1328,
      "Ġmo": 1329,
      "Ġass": 1330,
      "Ġkill": 1331,
      "Ġhome": 1332,
      "Ġbod": 1333,
      "Ġplease": 1334,
      "AY": 1335,
      "ory": 1336,
      "OB": 1337,
      "ati": 1338,
      "ĠFrom": 1339,
      "air": 1340,
      "selves": 1341,
      "ĠJohn": 1342,
      "Ġlight": 1343,
      "Ġstre": 1344,
      "ister": 1345,
      "ary": 1346,
      "ets": 1347,
      "Ġdou": 1348,
      "Ġthousand": 1349,
      "eel": 1350,
      "Ġmon": 1351,
      "Ġhence": 1352,
      "Ġeven": 1353,
      "Ġhas": 1354,
      "Ġtruth": 1355,
      "Ġ\"": 1356,
      "IP": 1357,
      "RIN": 1358,
      "ĠĠĠĠĠĠĠĠĠĠ": 1359,
      "ene": 1360,
      "Ġheard": 1361,
      "Ġhands": 1362,
      "Ġsleep": 1363,
      "ĠRICHARD": 1364,
      "ICE": 1365,
      "ELLO": 1366,
      "Ġcause": 1367,
      "Aside": 1368,
      "ĠSERV": 1369,
      "Ġdost": 1370,
      "Ġdisc": 1371,
      "LA": 1372,
      "ph": 1373,
      "Ġwhom": 1374,
      "bt": 1375,
      "ĠĠĠĠĠĠĠĠĠ": 1376,
      "ĠMaster": 1377,
      "Ġnature": 1378,
      "Ġuse": 1379,
      "ertain": 1380,
      "Ġfalse": 1381,
      "ony": 1382,
      "fect": 1383,
      "Ġjust": 1384,
      "Ġmadam": 1385,
      "ĠUpon": 1386,
      "vy": 1387,
      "ĠRom": 1388,
      "Ġvirt": 1389,
      "ĠGive": 1390,
      "ardon": 1391,
      "Ġbed": 1392,
      "ĠSp": 1393,
      "ĠGrace": 1394,
      "Ġsure": 1395,
      "Ġthank": 1396,
      "ERM": 1397,
      "Ġvillain": 1398,
      "ETH": 1399,
      "Ġi": 1400,
      "omet": 1401,
      "Ġcar": 1402,
      "ĠAre": 1403,
      "imes": 1404,
      "ĠĠĠĠĠĠĠĠĠĠĠĠĠĠĠ": 1405,
      "pect": 1406,
      "ants": 1407,
      "Ġpower": 1408,
      "Ġwithin": 1409,
      "mb": 1410,
      "cious": 1411,
      "eal": 1412,
      "ms": 1413,
      "ĠĠĠĠĠĠĠĠĠĠĠĠĠĠ": 1414,
      "Ġsent": 1415,
      "ĠSu": 1416,
      "Ġstate": 1417,
      "ĠGl": 1418,
      "Ġval": 1419,
      "ĠEngland": 1420,
      "ĠII": 1421,
      "ĠĠĠĠĠĠĠĠĠĠĠ": 1422,
      "Ġgold": 1423,
      "Ġlaw": 1424,
      "ury": 1425,
      "Ġmis": 1426,
      "Ġmakes": 1427,
      "Ġwind": 1428,
      "Ġyouth": 1429,
      "Ġshame": 1430,
      "IAM": 1431,
      "Ġbreak": 1432,
      "Ġnews": 1433,
      "ĠWILL": 1434,
      "ches": 1435,
      "Ġbus": 1436,
      "Ġthings": 1437,
      "Ġhither": 1438,
      "vere": 1439,
      "ring": 1440,
      "ning": 1441,
      "Ġbu": 1442,
      "any": 1443,
      "UTUS": 1444,
      "Ġfar": 1445,
      "ĠGR": 1446,
      "Ġfight": 1447,
      "Ġbea": 1448,
      "ute": 1449,
      "Ġere": 1450,
      "Ġfellow": 1451,
      "ĠBRUTUS": 1452,
      "Ġwel": 1453,
      "ĠBER": 1454,
      "aud": 1455,
      "ĠPAGE": 1456,
      "Ġcame": 1457,
      "ange": 1458,
      "Ġhapp": 1459,
      "ĠLA": 1460,
      "Ġgentleman": 1461,
      "ceive": 1462,
      "ANIO": 1463,
      "day": 1464,
      "ĠĠĠĠĠĠĠĠĠĠĠĠĠ": 1465,
      "ĠANTONY": 1466,
      "Ġmaid": 1467,
      "ĠWILLIAM": 1468,
      "LU": 1469,
      "WN": 1470,
      "fort": 1471,
      "use": 1472,
      "ouch": 1473,
      "Ġgr": 1474,
      "ĠWould": 1475,
      "ĠCLOWN": 1476,
      "ETR": 1477,
      "SAL": 1478,
      "ĠPRIN": 1479,
      "ĠGlou": 1480,
      "OUR": 1481,
      "yal": 1482,
      "Ġill": 1483,
      "Ġsince": 1484,
      "Ġban": 1485,
      "ieve": 1486,
      "Ġenough": 1487,
      "ĠHath": 1488,
      "ĠDid": 1489,
      "Ġadv": 1490,
      "Ġhelp": 1491,
      "Ġrather": 1492,
      "ECT": 1493,
      "ĠROSAL": 1494,
      "ade": 1495,
      "Ġshalt": 1496,
      "Ġgrace": 1497,
      "dd": 1498,
      "ĠSERVANT": 1499,
      "ild": 1500,
      "ĠĠĠĠĠĠĠ": 1501,
      "Ġdoes": 1502,
      "pose": 1503,
      "Ġhang": 1504,
      "Ġland": 1505,
      "Ġye": 1506,
      "Ġwithout": 1507,
      "ONG": 1508,
      "ions": 1509,
      "und": 1510,
      "ĠLook": 1511,
      "Ġdevil": 1512,
      "ctor": 1513,
      "To": 1514,
      "ars": 1515,
      "ĠSh": 1516,
      "ORT": 1517,
      "The": 1518,
      "Ġsec": 1519,
      "Ġhonest": 1520,
      "gether": 1521,
      "ĠLe": 1522,
      "Ġbody": 1523,
      "'re": 1524,
      "Ġlast": 1525,
      "vers": 1526,
      "Ġgods": 1527,
      "Ġinst": 1528,
      "ener": 1529,
      "Ġenem": 1530,
      ".]": 1531,
      "ĠOTHELLO": 1532,
      "Ġsound": 1533,
      "Ġbo": 1534,
      "ours": 1535,
      "MAN": 1536,
      "Ġtears": 1537,
      "Ġattend": 1538,
      "ĠIAG": 1539,
      "Ġlay": 1540,
      "Ġgre": 1541,
      "Ġunc": 1542,
      "ĠIAGO": 1543,
      "ĠAr": 1544,
      "ĠSIR": 1545,
      "ousin": 1546,
      "Ġwelcome": 1547,
      "ATH": 1548,
      "Ġcare": 1549,
      "ates": 1550,
      "ĠFal": 1551,
      "ĠLE": 1552,
      "Ġsun": 1553,
      "ĠTHE": 1554,
      "jesty": 1555,
      "Ġmistress": 1556,
      "Ġop": 1557,
      "Ġpers": 1558,
      "Ġfault": 1559,
      "ner": 1560,
      "ork": 1561,
      "ĠFare": 1562,
      "Ġstri": 1563,
      "Ġdeed": 1564,
      "LD": 1565,
      "Ġyourself": 1566,
      "Ġsend": 1567,
      "ĠCASS": 1568,
      "Ġcommand": 1569,
      "ject": 1570,
      "ues": 1571,
      "Ġseen": 1572,
      "Ġbreath": 1573,
      "een": 1574,
      "ĠLONG": 1575,
      "ides": 1576,
      "Ġstrange": 1577,
      "ily": 1578,
      "Ġpati": 1579,
      "ISS": 1580,
      "Ġgrief": 1581,
      "ger": 1582,
      "Ġfire": 1583,
      "ĠTherefore": 1584,
      "ween": 1585,
      "DES": 1586,
      "iers": 1587,
      "urther": 1588,
      "Ġswear": 1589,
      "Ġsaw": 1590,
      "ABLE": 1591,
      "Ġfortune": 1592,
      "Ġspirit": 1593,
      "Ġnear": 1594,
      "Ġkiss": 1595,
      "Ġstrong": 1596,
      "ĠSO": 1597,
      "Ġmeans": 1598,
      "ents": 1599,
      "ains": 1600,
      "ĠĠĠĠĠĠĠĠĠĠĠĠĠĠĠĠĠ": 1601,
      "de": 1602,
      "ike": 1603,
      "ten": 1604,
      "Ġhigh": 1605,
      "ĠYORK": 1606,
      "Ġdru": 1607,
      "Ġless": 1608,
      "enter": 1609,
      "ĠClaud": 1610,
      "Ġsomet": 1611,
      "OLK": 1612,
      "Ġremem": 1613,
      "Ġwhy": 1614,
      "ats": 1615,
      "ĠSCENE": 1616,
      "ĠBE": 1617,
      "ĠCLE": 1618,
      "PLE": 1619,
      "UFF": 1620,
      "ĠMEN": 1621,
      "ACT": 1622,
      "by": 1623,
      "op": 1624,
      "Ġpal": 1625,
      "Ġjoy": 1626,
      "ĠCan": 1627,
      "ĠMAY": 1628,
      "ĠRE": 1629,
      "iz": 1630,
      "hold": 1631,
      "Ġprove": 1632,
      "ITH": 1633,
      "Ġwish": 1634,
      "Ġweep": 1635,
      "Ġlost": 1636,
      "hes": 1637,
      "Ġgrow": 1638,
      "Ġhorse": 1639,
      "ĠEven": 1640,
      "usic": 1641,
      "Ġrun": 1642,
      "Ġreturn": 1643,
      "AS": 1644,
      "ey": 1645,
      "Ġonly": 1646,
      "EMB": 1647,
      "Ġyours": 1648,
      "Ġspo": 1649,
      "INIUS": 1650,
      "Ġsea": 1651,
      "ĠUn": 1652,
      "Ġarms": 1653,
      "anger": 1654,
      "Ġthrough": 1655,
      "ĠWAR": 1656,
      "ĠĠĠĠĠĠĠĠĠĠĠĠĠĠĠĠĠĠĠĠĠĠĠĠĠ": 1657,
      "WICK": 1658,
      "Ġsick": 1659,
      "Ġpardon": 1660,
      "ATR": 1661,
      "IZ": 1662,
      "dom": 1663,
      "Ġprom": 1664,
      "Ġget": 1665,
      "ĠMESS": 1666,
      "ads": 1667,
      "Ġstra": 1668,
      "ĠTIMON": 1669,
      "OPATR": 1670,
      "ĠCLEOPATR": 1671,
      "ĠCLEOPATRA": 1672,
      "LAND": 1673,
      "Ġtalk": 1674,
      "UTEN": 1675,
      "ran": 1676,
      "rink": 1677,
      "ĠCass": 1678,
      "oney": 1679,
      "HAM": 1680,
      "ĠWARWICK": 1681,
      "Ġtogether": 1682,
      "alth": 1683,
      "oe": 1684,
      "Ġfree": 1685,
      "iet": 1686,
      "night": 1687,
      "ĠLear": 1688,
      "INO": 1689,
      "ift": 1690,
      "Ġhard": 1691,
      "Ġcountry": 1692,
      "EY": 1693,
      "ken": 1694,
      "ithe": 1695,
      "ĠSome": 1696,
      "ĠMay": 1697,
      "EGE": 1698,
      "Ġden": 1699,
      "sed": 1700,
      "GER": 1701,
      "Ġborn": 1702,
      "ĠFR": 1703,
      "Ġitself": 1704,
      "ĠKATH": 1705,
      "ĠJul": 1706,
      "Ġthoughts": 1707,
      "VIA": 1708,
      "ople": 1709,
      "Ġcousin": 1710,
      "Ġvo": 1711,
      "els": 1712,
      "Ġjud": 1713,
      "Ġdisp": 1714,
      "Ġleft": 1715,
      "Ġbusiness": 1716,
      "XT": 1717,
      "outh": 1718,
      "Ġsorrow": 1719,
      "ster": 1720,
      "ĠThese": 1721,
      "ĠGENT": 1722,
      "Ġsupp": 1723,
      "ERSON": 1724,
      "ĠWhose": 1725,
      "Ġroyal": 1726,
      "IANA": 1727,
      "ĠGENTLE": 1728,
      "morrow": 1729,
      "Ġwant": 1730,
      "ĠYork": 1731,
      "Ġsays": 1732,
      "ĠMa": 1733,
      "Ġtem": 1734,
      "Ġsing": 1735,
      "Ġwilt": 1736,
      "Ġfore": 1737,
      "enry": 1738,
      "ĠThough": 1739,
      "Ġfound": 1740,
      "Ġhalf": 1741,
      "Ġalone": 1742,
      ".,": 1743,
      "lish": 1744,
      "tw": 1745,
      "Ġfly": 1746,
      "Ġfoul": 1747,
      "ĠSYR": 1748,
      "ĠHenry": 1749,
      "ĠLu": 1750,
      "Ġread": 1751,
      "ACUSE": 1752,
      "ĠOTHERS": 1753,
      "rench": 1754,
      "ĠSYRACUSE": 1755,
      "UL": 1756,
      "ĠWas": 1757,
      "UCK": 1758,
      "aw": 1759,
      "Ġsight": 1760,
      "ĠMore": 1761,
      "mer": 1762,
      "ĠTro": 1763,
      "Ġgener": 1764,
      "ross": 1765,
      "Ġseek": 1766,
      "Ġdist": 1767,
      "Ġdraw": 1768,
      "IGH": 1769,
      "Ġcry": 1770,
      "IND": 1771,
      "gainst": 1772,
      "Ġservice": 1773,
      "BERG": 1774,
      "HINE": 1775,
      "let": 1776,
      "Ġlate": 1777,
      "Ġtold": 1778,
      "ĠCOR": 1779,
      "Ġlies": 1780,
      "Ġexce": 1781,
      "Ġbeauty": 1782,
      "rs": 1783,
      "ENGER": 1784,
      "Ġcomfort": 1785,
      "Ġbloody": 1786,
      "hard": 1787,
      "PRO": 1788,
      "Ġaw": 1789,
      "Ġsister": 1790,
      "Ġmet": 1791,
      "Ġca": 1792,
      "Ġwear": 1793,
      "Ġproud": 1794,
      "ROM": 1795,
      "onder": 1796,
      "TEXT": 1797,
      "ĠAntony": 1798,
      "HIP": 1799,
      "KES": 1800,
      "ĠĠĠĠĠĠĠĠĠĠĠĠĠĠĠĠĠĠ": 1801,
      "Ġreven": 1802,
      "Ġdef": 1803,
      "ARE": 1804,
      "ARY": 1805,
      "ĠMESSENGER": 1806,
      "GES": 1807,
      "ls": 1808,
      "Ġsame": 1809,
      "ĠĠĠĠĠĠĠĠĠĠĠĠĠĠĠĠĠĠĠĠĠĠ": 1810,
      "Ġdesire": 1811,
      "ĠTIME": 1812,
      "ĠUS": 1813,
      "erv": 1814,
      "Ġgave": 1815,
      "Ġrec": 1816,
      "IGHT": 1817,
      "COM": 1818,
      "IAL": 1819,
      "ense": 1820,
      "ĠAS": 1821,
      "ĠWOR": 1822,
      "Ġfare": 1823,
      "THIS": 1824,
      "ICT": 1825,
      "Ġwork": 1826,
      "ĠTHAT": 1827,
      "like": 1828,
      "form": 1829,
      "Ġdoubt": 1830,
      "ithee": 1831,
      "PROV": 1832,
      ".>": 1833,
      "<<": 1834,
      "DISTRIBUT": 1835,
      "HIB": 1836,
      "JECT": 1837,
      "NLY": 1838,
      "PERSON": 1839,
      "RARY": 1840,
      "SHA": 1841,
      "SERV": 1842,
      "WITH": 1843,
      "ĠUSE": 1844,
      "Ġ199": 1845,
      "Ġbro": 1846,
      "ĠILL": 1847,
      "ĠWORK": 1848,
      "ĠSUCH": 1849,
      "ĠBEN": 1850,
      "ĠMEMB": 1851,
      "ĠONLY": 1852,
      "ĠPERM": 1853,
      "ĠETEXT": 1854,
      "ĠLIB": 1855,
      "ĠGUTEN": 1856,
      "ĠDOWN": 1857,
      "ĠNOT": 1858,
      "ĠYOUR": 1859,
      "Ġsuff": 1860,
      "LLY": 1861,
      "LLEGE": 1862,
      "Ġprison": 1863,
      "IALLY": 1864,
      "ĠANY": 1865,
      "EDICT": 1866,
      "ĠCOLLEGE": 1867,
      "ĠVERS": 1868,
      "LOAD": 1869,
      "ERSHIP": 1870,
      "ADABLE": 1871,
      "ITED": 1872,
      "ĠPROHIB": 1873,
      "ĠPROJECT": 1874,
      "IDED": 1875,
      "ĠCOPYR": 1876,
      "ĠCOMMERC": 1877,
      "ĠCOMPLE": 1878,
      "ĠMACHINE": 1879,
      "PEARE": 1880,
      "1993": 1881,
      "ĠINCLU": 1882,
      "ĠDISTRIBUTED": 1883,
      "ĠDISTRIBUTION": 1884,
      "MERCIALLY": 1885,
      "ĠCHARGES": 1886,
      "ISSION": 1887,
      "ĠREADABLE": 1888,
      "INOIS": 1889,
      "KESPEARE": 1890,
      "ĠUSED": 1891,
      "COMMERCIALLY": 1892,
      "ĠWORLD": 1893,
      "PROVIDED": 1894,
      ".>>": 1895,
      "DISTRIBUTED": 1896,
      "PERSONAL": 1897,
      "SHAKESPEARE": 1898,
      "SERVICE": 1899,
      "Ġ1990": 1900,
      "ĠILLINOIS": 1901,
      "ĠWORKS": 1902,
      "ĠBENEDICT": 1903,
      "ĠMEMBERSHIP": 1904,
      "ĠPERMISSION": 1905,
      "ĠLIBRARY": 1906,
      "ĠGUTENBERG": 1907,
      "ĠDOWNLOAD": 1908,
      "ĠVERSION": 1909,
      "ĠPROHIBITED": 1910,
      "ĠCOPYRIGHT": 1911,
      "ĠCOMMERCIAL": 1912,
      "ĠCOMPLETE": 1913,
      "ĠINCLUDES": 1914,
      "ĠBENEDICTINE": 1915,
      "RS": 1916,
      "up": 1917,
      "Ġpurpose": 1918,
      "Ġpeople": 1919,
      "ĠROSALIND": 1920,
      "ures": 1921,
      "ĠPo": 1922,
      "ĠĠĠĠĠĠĠĠĠĠĠĠĠĠĠĠĠĠĠĠĠ": 1923,
      "gs": 1924,
      "Ġfield": 1925,
      "Ġoath": 1926,
      "Ġcra": 1927,
      "ĠTIT": 1928,
      "ĠMRS": 1929,
      "ĠFORD": 1930,
      "Ġtend": 1931,
      "Ġbri": 1932,
      "Ġself": 1933,
      "Ġhate": 1934,
      "Ġsit": 1935,
      "itor": 1936,
      "cester": 1937,
      "Ġcold": 1938,
      "DER": 1939,
      "IPH": 1940,
      "kes": 1941,
      "ĠHigh": 1942,
      "Ġdep": 1943,
      "ial": 1944,
      "Ġsad": 1945,
      "rest": 1946,
      "Ġpity": 1947,
      "ĠSay": 1948,
      "ounds": 1949,
      "Ġsil": 1950,
      "Ġquick": 1951,
      "BETH": 1952,
      "av": 1953,
      "Ġcond": 1954,
      "ĠSw": 1955,
      "urse": 1956,
      "ĠPray": 1957,
      "ĠMACBETH": 1958,
      "Ġfit": 1959,
      "Ġlear": 1960,
      "ĠPAR": 1961,
      "ONT": 1962,
      "Ġfoot": 1963,
      "ĠSpeak": 1964,
      "WARD": 1965,
      "Ġaff": 1966,
      "Ġwat": 1967,
      "Ġdam": 1968,
      "ĠTill": 1969,
      "ĠTake": 1970,
      "ĠAG": 1971,
      "oose": 1972,
      "ĠFrench": 1973,
      "Ġsoon": 1974,
      "Ġknows": 1975,
      "Ġbeseech": 1976,
      "Ġtimes": 1977,
      "Ġair": 1978,
      "ĠBA": 1979,
      "OLUS": 1980,
      "IPHOLUS": 1981,
      "ĠJO": 1982,
      "cius": 1983,
      "Ġcompany": 1984,
      "OLL": 1985,
      "ns": 1986,
      "Ġwin": 1987,
      "ĠNe": 1988,
      "Ġlose": 1989,
      "Ġlooks": 1990,
      "most": 1991,
      "Ġcoun": 1992,
      "ĠGENTLEMAN": 1993,
      "bour": 1994,
      "Ġsk": 1995,
      "Ġdare": 1996,
      "Ġforg": 1997,
      "ĠLAD": 1998,
      "Ġcommon": 1999,
      "ĠMajesty": 2000,
      "Ex": 2001,
      "cess": 2002,
      "ling": 2003,
      "ĠPAND": 2004,
      "ĠĠĠĠĠĠĠĠĠĠĠĠĠĠĠĠĠĠĠ": 2005,
      "ĠWere": 2006,
      "Ġdream": 2007,
      "Ġage": 2008,
      "ĠWar": 2009,
      "ĠCR": 2010,
      "Ġexp": 2011,
      "Ġdays": 2012,
      "Ġuncle": 2013,
      "HN": 2014,
      "xt": 2015,
      "Ġter": 2016,
      "Ġdanger": 2017,
      "Ġdel": 2018,
      "ARUS": 2019,
      "Ġcharge": 2020,
      "ĠJOHN": 2021,
      "ub": 2022,
      "Ġcho": 2023,
      "arry": 2024,
      "Ġinf": 2025,
      "ĠHEL": 2026,
      "ĠMad": 2027,
      "Ġvi": 2028,
      "Ġtrust": 2029,
      "Ġmark": 2030,
      "ĠLeon": 2031,
      "ĠHELEN": 2032,
      "Ġdrink": 2033,
      "Ġserve": 2034,
      "Ġsin": 2035,
      "Ġmusic": 2036,
      "Ġwa": 2037,
      "eter": 2038,
      "Ġund": 2039,
      "Ġloves": 2040,
      "Ġbetween": 2041,
      "ments": 2042,
      "ĠOne": 2043,
      "LAN": 2044,
      "be": 2045,
      "now": 2046,
      "the": 2047,
      "ĠPro": 2048,
      "urd": 2049,
      "ĠKent": 2050,
      "ices": 2051,
      "Ġprince": 2052,
      "HE": 2053,
      "vent": 2054,
      "ĠĠĠĠĠĠ": 2055,
      "ham": 2056,
      "Ġfav": 2057,
      "Ġgeneral": 2058,
      "gg": 2059,
      "ible": 2060,
      "ted": 2061,
      "ĠMost": 2062,
      "Ġeach": 2063,
      "Ġask": 2064,
      "ĠEdward": 2065,
      "ĠCom": 2066,
      "Ġbelieve": 2067,
      "ĠFarewell": 2068,
      "cause": 2069,
      "wick": 2070,
      "Ġwise": 2071,
      "ĠHa": 2072,
      "Ġgrave": 2073,
      "Ġworthy": 2074,
      "ives": 2075,
      "ĠCIT": 2076,
      "ĠLike": 2077,
      "Ġlives": 2078,
      "Ġqueen": 2079,
      "IZEN": 2080,
      "ĠHighness": 2081,
      "ĠCITIZEN": 2082,
      "rew": 2083,
      "ĠRic": 2084,
      "Ġsum": 2085,
      "INGHAM": 2086,
      "ĠVAL": 2087,
      "ĠĠĠĠĠĠĠĠĠĠĠĠĠĠĠĠĠĠĠĠĠĠĠ": 2088,
      "Ġgracious": 2089,
      "Ġwarrant": 2090,
      "ROMIO": 2091,
      "Ġcertain": 2092,
      "Ġyears": 2093,
      "Ġpar": 2094,
      "utus": 2095,
      "Ġthyself": 2096,
      "Ġbrought": 2097,
      "Ġmarry": 2098,
      "aking": 2099,
      "ELLA": 2100,
      "ĠMarry": 2101,
      "ABELLA": 2102,
      "Ġhappy": 2103,
      "aim": 2104,
      "aff": 2105,
      "Ġmoney": 2106,
      "Ġfurther": 2107,
      "ĠEN": 2108,
      "Ġknown": 2109,
      "ford": 2110,
      "gue": 2111,
      "Ġbir": 2112,
      "Ġyield": 2113,
      "ĠTell": 2114,
      "ĠLady": 2115,
      "ief": 2116,
      "Ġholy": 2117,
      "Ġwrit": 2118,
      "ĠWarwick": 2119,
      "TA": 2120,
      "ting": 2121,
      "Ġmin": 2122,
      "Ġbat": 2123,
      "Ġcut": 2124,
      "ĠBO": 2125,
      "Ġcontent": 2126,
      "Ġgiven": 2127,
      "ĠRichard": 2128,
      "hal": 2129,
      "Ġbar": 2130,
      "Ġbound": 2131,
      "ery": 2132,
      "ĠED": 2133,
      "ENIUS": 2134,
      "Ġothers": 2135,
      "Ġbrave": 2136,
      "ĠMENENIUS": 2137,
      "ĠMadam": 2138,
      "ĠOLI": 2139,
      "estion": 2140,
      "fection": 2141,
      "ĠBefore": 2142,
      "ANTIPHOLUS": 2143,
      "az": 2144,
      "Ġac": 2145,
      "erve": 2146,
      "Ġhell": 2147,
      "Ġpleasure": 2148,
      "Ġvirtue": 2149,
      "PER": 2150,
      "gar": 2151,
      "Ġpast": 2152,
      "Ġdeep": 2153,
      "ĠYes": 2154,
      "Ġpleas": 2155,
      "UCHIO": 2156,
      "Ġpraise": 2157,
      "ĠPRINCE": 2158,
      "UCKINGHAM": 2159,
      "ĠEDWARD": 2160,
      "Ġpay": 2161,
      "Ġbeat": 2162,
      "Ġinc": 2163,
      "ĠBUCKINGHAM": 2164,
      "IOLAN": 2165,
      "ĠEnglish": 2166,
      "ĠBrutus": 2167,
      "IOLANUS": 2168,
      "bs": 2169,
      "ceed": 2170,
      "Ġsovere": 2171,
      "ĠNOR": 2172,
      "Ġposs": 2173,
      "Ġreport": 2174,
      "ĠANTONIO": 2175,
      "UFFOLK": 2176,
      "ĠLADY": 2177,
      "Ġact": 2178,
      "Ġside": 2179,
      "Ġcor": 2180,
      "ĠAway": 2181,
      "oward": 2182,
      "ĠPETR": 2183,
      "ONA": 2184,
      "Ġpoint": 2185,
      "ĠPETRUCHIO": 2186,
      "ship": 2187,
      "Ġwhile": 2188,
      "Ġdiv": 2189,
      "ĠSUFFOLK": 2190,
      "enty": 2191,
      "ĠDe": 2192,
      "Ġsave": 2193,
      "Ġhearts": 2194,
      "ĠBeat": 2195,
      "Ġlead": 2196,
      "ĠAlas": 2197,
      "UNT": 2198,
      "ĠCORIOLANUS": 2199,
      "iant": 2200,
      "Ġsake": 2201,
      "ĠSee": 2202,
      "ĠHad": 2203,
      "ĠRos": 2204,
      "Ġknave": 2205,
      "ĠGloucester": 2206,
      "Ġten": 2207,
      "ĠPl": 2208,
      "Ġrequ": 2209,
      "ush": 2210,
      "Ġjo": 2211,
      "ĠTITUS": 2212,
      "Ġbold": 2213,
      "lly": 2214,
      "INA": 2215,
      "Ġdev": 2216,
      "Ġrich": 2217,
      "ĠPANDARUS": 2218,
      "ek": 2219,
      "Ġtouch": 2220,
      "Ġmouth": 2221,
      "Ġwis": 2222,
      "ĠTOB": 2223,
      "Ġgall": 2224,
      "ENTINE": 2225,
      "OWNE": 2226,
      "Ġperson": 2227,
      "ĠTOBY": 2228,
      "ne": 2229,
      "Ġmock": 2230,
      "Ġfour": 2231,
      "ĠWh": 2232,
      "ĠCon": 2233,
      "Ġeat": 2234,
      "oof": 2235,
      "ESAR": 2236,
      "Ġknight": 2237,
      "ĠCAESAR": 2238,
      "ĠHELENA": 2239,
      "ned": 2240,
      "Ġest": 2241,
      "Ġmorn": 2242,
      "Ġcol": 2243,
      "ots": 2244,
      "Ġsuit": 2245,
      "Ġsoldiers": 2246,
      "Ġground": 2247,
      "DEM": 2248,
      "Ġsur": 2249,
      "Ġsign": 2250,
      "anc": 2251,
      "ĠDES": 2252,
      "Ġlov": 2253,
      "iece": 2254,
      "Ġprof": 2255,
      "Ġconfess": 2256,
      "ĠBEROWNE": 2257,
      "ĠVALENTINE": 2258,
      "DEMONA": 2259,
      "ĠDESDEMONA": 2260,
      "DROMIO": 2261,
      "no": 2262,
      "ĠCh": 2263,
      "ĠThus": 2264,
      "Ġheavy": 2265,
      "ESSID": 2266,
      "Ġenemy": 2267,
      "ĠCRESSID": 2268,
      "ĠCRESSIDA": 2269,
      "esh": 2270,
      "ĠAh": 2271,
      "ĠSHA": 2272,
      "Ġblack": 2273,
      "inks": 2274,
      "Ġsons": 2275,
      "Ġtender": 2276,
      "Ġgar": 2277,
      "amp": 2278,
      "Ġmerry": 2279,
      "Ġmercy": 2280,
      "!'": 2281,
      "IER": 2282,
      "SC": 2283,
      "ĠMake": 2284,
      "edi": 2285,
      "hil": 2286,
      "LLOW": 2287,
      "Ġgoes": 2288,
      "ĠPROTE": 2289,
      "Ġsubject": 2290,
      "ĠPAROLL": 2291,
      "ĠSHALLOW": 2292,
      "ĠPROTEUS": 2293,
      "ĠPAROLLES": 2294,
      "ior": 2295,
      "Ġwoo": 2296,
      "Ġhot": 2297,
      "ĠHor": 2298,
      "alt": 2299,
      "Ġknew": 2300,
      "Ġwomen": 2301,
      "Ġfarewell": 2302,
      "Ġwatch": 2303,
      "Ġbos": 2304,
      "ĠTRO": 2305,
      "ries": 2306,
      "Ġring": 2307,
      "ĠSc": 2308,
      "ESUS": 2309,
      "Ġvis": 2310,
      "Ġbless": 2311,
      "PHESUS": 2312,
      "ILUS": 2313,
      "Ġpatience": 2314,
      "ĠTROILUS": 2315,
      "ires": 2316,
      "sue": 2317,
      "ĠSOL": 2318,
      "ĠSince": 2319,
      "ERD": 2320,
      "Ġfast": 2321,
      "Ġnext": 2322,
      "IRD": 2323,
      "ĠTHIRD": 2324,
      "YM": 2325,
      "Ġdro": 2326,
      "Ġpen": 2327,
      "ĠPed": 2328,
      "ourish": 2329,
      "ANCE": 2330,
      "Ġshort": 2331,
      "Ġthemselves": 2332,
      "Ġquar": 2333,
      "CUS": 2334,
      "com": 2335,
      "uff": 2336,
      "rem": 2337,
      "Ġburn": 2338,
      "Ġcast": 2339,
      "ĠOut": 2340,
      "Ġspeed": 2341,
      "ally": 2342,
      "Ġcourse": 2343,
      "ĠLUCIUS": 2344,
      "Ġbosom": 2345,
      ".-": 2346,
      "ray": 2347,
      "Ġtown": 2348,
      "ated": 2349,
      "ĠPer": 2350,
      "ĠDes": 2351,
      "Ġdesp": 2352,
      "Ġchange": 2353,
      "Ġvoice": 2354,
      "pl": 2355,
      "Ġlad": 2356,
      "ĠAL": 2357,
      "vel": 2358,
      "ask": 2359,
      "thing": 2360,
      "Ġears": 2361,
      "Ġopen": 2362,
      "ĠPedro": 2363,
      "uous": 2364,
      "Ġord": 2365,
      "Ġbase": 2366,
      "stand": 2367,
      "ĠBen": 2368,
      "irm": 2369,
      "ĠEPHESUS": 2370,
      "Ġneither": 2371,
      "Ġquestion": 2372,
      "Ġprop": 2373,
      "ĠISABELLA": 2374,
      "Ġenter": 2375,
      "Ġbehold": 2376,
      "Ġhair": 2377,
      "ĠCap": 2378,
      "ĠPORT": 2379,
      "Ġtrump": 2380,
      "Ġtook": 2381,
      "Ġappear": 2382,
      "Ġentreat": 2383,
      "Ġguard": 2384,
      "ĠShould": 2385,
      "Ġstraight": 2386,
      "ĠPORTIA": 2387,
      "!-": 2388,
      "Ġwall": 2389,
      "Ġthri": 2390,
      "Ġtoward": 2391,
      "ote": 2392,
      "Ġdog": 2393,
      "gel": 2394,
      "Ġgentlemen": 2395,
      "ethinks": 2396,
      "ĠRomeo": 2397,
      "ixt": 2398,
      "Ġbanish": 2399,
      "Ġremember": 2400,
      "Ġsovereign": 2401,
      "ec": 2402,
      "ges": 2403,
      "Ġ1": 2404,
      "ready": 2405,
      "Ġweak": 2406,
      "Ġworse": 2407,
      "Ġplain": 2408,
      "Ġext": 2409,
      "Ġsomething": 2410,
      "Ġpalace": 2411,
      "Ġcounsel": 2412,
      "Ġta": 2413,
      "Ġduty": 2414,
      "ĠHOST": 2415,
      "rah": 2416,
      "ĠHector": 2417,
      "Ġprov": 2418,
      "BUR": 2419,
      "Ġwalk": 2420,
      "Ġfeel": 2421,
      "ENCE": 2422,
      "aste": 2423,
      "Ġexc": 2424,
      "Ġhaste": 2425,
      "Ġsoldier": 2426,
      "Ġvaliant": 2427,
      "Ġwater": 2428,
      "EB": 2429,
      "Ġfe": 2430,
      "atis": 2431,
      "ANS": 2432,
      ",'": 2433,
      "bly": 2434,
      "cha": 2435,
      "hed": 2436,
      "Ġwret": 2437,
      "ĠTR": 2438,
      "ĠMust": 2439,
      "Ġdeli": 2440,
      "Ġcanst": 2441,
      "ortal": 2442,
      "ague": 2443,
      "Ġappro": 2444,
      "Ġservant": 2445,
      "ĠSweet": 2446,
      "ones": 2447,
      "ĠMistress": 2448,
      "ILIA": 2449,
      "OTH": 2450,
      "Ġemb": 2451,
      "ĠPol": 2452,
      "Ġdoor": 2453,
      "ROKE": 2454,
      "Ġdidst": 2455,
      "ĠEdm": 2456,
      "ĠIII": 2457,
      "BUS": 2458,
      "Ġwoe": 2459,
      "Ġcoward": 2460,
      "ĠTru": 2461,
      "ĠPar": 2462,
      "ĠTheir": 2463,
      "Ġtwenty": 2464,
      "Ġliege": 2465,
      "Ġtraitor": 2466,
      "of": 2467,
      "Ġbad": 2468,
      "ĠSIC": 2469,
      "ARBUS": 2470,
      "Ġcoming": 2471,
      "Ġmarried": 2472,
      "ISTOL": 2473,
      "ully": 2474,
      "Ġpret": 2475,
      "bb": 2476,
      "Ġwonder": 2477,
      "Ġopp": 2478,
      "ities": 2479,
      "Ġoft": 2480,
      "Ġnote": 2481,
      "ĠPeace": 2482,
      "aught": 2483,
      "Ġneeds": 2484,
      "Ġjustice": 2485,
      "ĠCassio": 2486,
      "rous": 2487,
      "ĠSEN": 2488,
      "ĠEm": 2489,
      "Ġunt": 2490,
      "riage": 2491,
      "ends": 2492,
      "ptain": 2493,
      "ĠStand": 2494,
      "Ġglad": 2495,
      "ĠSuch": 2496,
      "Exit": 2497,
      "GEN": 2498,
      "MO": 2499,
      "mber": 2500,
      "ĠIMO": 2501,
      "Ġcity": 2502,
      "Ġcap": 2503,
      "ĠPISTOL": 2504,
      "Ġspeech": 2505,
      "feit": 2506,
      "Ġflesh": 2507,
      "OBARBUS": 2508,
      "ĠENOBARBUS": 2509,
      "BURY": 2510,
      "ĠIMOGEN": 2511,
      "Ġcle": 2512,
      "ĠSIL": 2513,
      "ĠFri": 2514,
      "rows": 2515,
      "Ġharm": 2516,
      "ĠLEONT": 2517,
      "ĠCASSIUS": 2518,
      "Ġrevenge": 2519,
      "ĠLEONTES": 2520,
      "cher": 2521,
      "fter": 2522,
      "over": 2523,
      "Ġcr": 2524,
      "Ġlack": 2525,
      "ĠAgainst": 2526,
      "ĠSAL": 2527,
      "cept": 2528,
      "ĠMAL": 2529,
      "each": 2530,
      "Ġsport": 2531,
      "ĠVIO": 2532,
      "Ġalmost": 2533,
      "Ġalready": 2534,
      "ĠORLAND": 2535,
      "Ġstreng": 2536,
      "ĠKATHER": 2537,
      "ĠORLANDO": 2538,
      "cent": 2539,
      "hood": 2540,
      "ip": 2541,
      "ines": 2542,
      "eness": 2543,
      "Ġhur": 2544,
      "ĠBene": 2545,
      "ĠLove": 2546,
      "east": 2547,
      "umber": 2548,
      "ondon": 2549,
      "Ġscorn": 2550,
      "dden": 2551,
      "Ġspoke": 2552,
      "Ġsuffer": 2553,
      "ĠBOY": 2554,
      "ĠVIOLA": 2555,
      "aid": 2556,
      "Ġaction": 2557,
      "Ġdu": 2558,
      "ona": 2559,
      "Ġgro": 2560,
      "ĠFl": 2561,
      "cks": 2562,
      "Ġprithee": 2563,
      "GELO": 2564,
      "Ġwithal": 2565,
      "Ġpresently": 2566,
      "Ġag": 2567,
      "Ġmove": 2568,
      "asc": 2569,
      "olk": 2570,
      "Ġhours": 2571,
      "Ġrespect": 2572,
      "Ġfavour": 2573,
      "ĠSICINIUS": 2574,
      "pr": 2575,
      "Ġfra": 2576,
      "Ġcreat": 2577,
      "Ġgrant": 2578,
      "Ġlips": 2579,
      "ament": 2580,
      "Ġpluck": 2581,
      "Ġoffend": 2582,
      "Ġclose": 2583,
      "FE": 2584,
      "vol": 2585,
      "Ġdark": 2586,
      "Ġlaugh": 2587,
      "Ġpow": 2588,
      "ĠCor": 2589,
      "Ġwars": 2590,
      "ched": 2591,
      "Ġstands": 2592,
      "QU": 2593,
      "SPER": 2594,
      "Ġbook": 2595,
      "Ġbond": 2596,
      "ĠMer": 2597,
      "Ġforb": 2598,
      "Ġscar": 2599,
      "Ġprep": 2600,
      "ĠClaudio": 2601,
      "ĠOLIVIA": 2602,
      "SPERO": 2603,
      "GAR": 2604,
      "bit": 2605,
      "bert": 2606,
      "ught": 2607,
      "Ġlow": 2608,
      "Ġbecome": 2609,
      "ĠCall": 2610,
      "Ġstir": 2611,
      "Ġred": 2612,
      "Ġsworn": 2613,
      "ĠPROSPERO": 2614,
      "ĠSOLD": 2615,
      "TEN": 2616,
      "rist": 2617,
      "ses": 2618,
      "ĠAU": 2619,
      "Ġheir": 2620,
      "ashi": 2621,
      "alm": 2622,
      "ĠYea": 2623,
      "Ġloss": 2624,
      "Ġconst": 2625,
      "umb": 2626,
      "Ġadd": 2627,
      "ĠĠĠĠĠĠĠĠĠĠĠĠĠĠĠĠĠĠĠĠĠĠĠĠĠĠĠ": 2628,
      "ĠMARGAR": 2629,
      "Ġmoon": 2630,
      "Ġdeny": 2631,
      "Ġmorning": 2632,
      "rel": 2633,
      "ites": 2634,
      "Ġhide": 2635,
      "Ġinter": 2636,
      "ĠBAST": 2637,
      "Ġtrou": 2638,
      "Ġwhite": 2639,
      "ainted": 2640,
      "Ġgrie": 2641,
      "UNCE": 2642,
      "ĠLAUNCE": 2643,
      "ĠTroy": 2644,
      "Ġstrength": 2645,
      "ĠBASTARD": 2646,
      "Ġmot": 2647,
      "Ġmod": 2648,
      "rer": 2649,
      "Ġpu": 2650,
      "Ġbeast": 2651,
      "etch": 2652,
      "oop": 2653,
      "Ġvile": 2654,
      "Ġoffice": 2655,
      "Ġheavens": 2656,
      "Ġdeliver": 2657,
      "Ġjest": 2658,
      "cience": 2659,
      "Ġslave": 2660,
      "Ġexcell": 2661,
      "nk": 2662,
      "Ġid": 2663,
      "Ġwild": 2664,
      "ised": 2665,
      "Ġfeast": 2666,
      "Ġpale": 2667,
      "ĠSPE": 2668,
      "ĠCL": 2669,
      "ĠLa": 2670,
      "Ġsudden": 2671,
      "TRAM": 2672,
      "Ġbattle": 2673,
      "ĠAd": 2674,
      "Ġpap": 2675,
      "Ġform": 2676,
      "Ġready": 2677,
      "empt": 2678,
      "Ġspeaks": 2679,
      "Ġslain": 2680,
      "ĠBERTRAM": 2681,
      "Ġjudg": 2682,
      "ĠMARGARET": 2683,
      "ĠSPEED": 2684,
      "Ġsense": 2685,
      "ĠBl": 2686,
      "Ġreg": 2687,
      "Ġthanks": 2688,
      "Ġtruly": 2689,
      "Ġkingdom": 2690,
      "Ġletters": 2691,
      "mit": 2692,
      "Ġmess": 2693,
      "Ġdire": 2694,
      "ĠBARD": 2695,
      "ĠCEL": 2696,
      "ird": 2697,
      "Ġem": 2698,
      "ĠDoth": 2699,
      "OLPH": 2700,
      "oss": 2701,
      "ĠReg": 2702,
      "were": 2703,
      "Ġlordship": 2704,
      "ĠHero": 2705,
      "ĠBARDOLPH": 2706,
      "ĠCELIA": 2707,
      "eep": 2708,
      "to": 2709,
      "Ġty": 2710,
      "Ġfashi": 2711,
      "ceiv": 2712,
      "ĠHear": 2713,
      "ution": 2714,
      "ĠPOM": 2715,
      "roke": 2716,
      "aken": 2717,
      "Ġdisg": 2718,
      "Ġabs": 2719,
      "Ġabove": 2720,
      "Ġunderstand": 2721,
      "eem": 2722,
      "Ġmal": 2723,
      "Ġmount": 2724,
      "ĠIV": 2725,
      "Ġfat": 2726,
      "Ġdish": 2727,
      "Ġpit": 2728,
      "Ġhaving": 2729,
      "ash": 2730,
      "Ġsever": 2731,
      "ĠJUL": 2732,
      "ENTIO": 2733,
      "Ġpriv": 2734,
      "hind": 2735,
      "pes": 2736,
      "Ġfam": 2737,
      "Ġdin": 2738,
      "ĠSEB": 2739,
      "Ġang": 2740,
      "ĠCOUNT": 2741,
      "Ġchamber": 2742,
      "Ġbegin": 2743,
      "ASTIAN": 2744,
      "ĠPOMPE": 2745,
      "ĠSEBASTIAN": 2746,
      "BY": 2747,
      "cri": 2748,
      "ler": 2749,
      "ron": 2750,
      "Ġcase": 2751,
      "Ġhu": 2752,
      "Ġgot": 2753,
      "ĠMac": 2754,
      "Ġforce": 2755,
      "Ġliving": 2756,
      "ĠNurse": 2757,
      "Ġwhole": 2758,
      "Ġflow": 2759,
      "Ġrage": 2760,
      "Ġwitness": 2761,
      "ATOR": 2762,
      "ĠĠĠĠĠĠĠĠĠĠĠĠĠĠĠĠĠĠĠĠĠĠĠĠĠĠ": 2763,
      "Ġconscience": 2764,
      "Ġspirits": 2765,
      "Ġchildren": 2766,
      "Ġinstru": 2767,
      "ĠBASS": 2768,
      "ĠSOLDIER": 2769,
      "ĠJULIA": 2770,
      "ĠPOMPEY": 2771,
      "ffect": 2772,
      "Ġsigh": 2773,
      "Ġbit": 2774,
      "arum": 2775,
      "Ġoften": 2776,
      "ĠDUCH": 2777,
      "tune": 2778,
      "Ġdeeds": 2779,
      "atisf": 2780,
      "ĠDUCHESS": 2781,
      "mand": 2782,
      "Ġve": 2783,
      "Ġfing": 2784,
      "ĠSign": 2785,
      "ĠEM": 2786,
      "als": 2787,
      "Ġsteal": 2788,
      "ĠDEM": 2789,
      "Ġloving": 2790,
      "asters": 2791,
      "antage": 2792,
      "Ġmarriage": 2793,
      "ĠLUCIO": 2794,
      "ETRIUS": 2795,
      "undred": 2796,
      "ĠDEMETRIUS": 2797,
      "Ġmortal": 2798,
      "rey": 2799,
      "ĠCount": 2800,
      "ĠMo": 2801,
      "Ġstru": 2802,
      "Ġreb": 2803,
      "Ġsoft": 2804,
      "ĠCAM": 2805,
      "Ġpassion": 2806,
      "Ġstrike": 2807,
      "with": 2808,
      "Ġtit": 2809,
      "Ġlim": 2810,
      "ench": 2811,
      "ĠAP": 2812,
      "Ġbeard": 2813,
      "Ġeither": 2814,
      "Ġrel": 2815,
      "ĠBeing": 2816,
      "ĠARM": 2817,
      "ĠFRANCE": 2818,
      "hilst": 2819,
      "Ġsim": 2820,
      "Ġmorrow": 2821,
      "Ġwound": 2822,
      "Ġfive": 2823,
      "Ġhundred": 2824,
      "Ġeas": 2825,
      "ĠDis": 2826,
      "ations": 2827,
      "Ġdread": 2828,
      "ĠPRINC": 2829,
      "Ġlearn": 2830,
      "ĠChrist": 2831,
      "Ġfashion": 2832,
      "BROKE": 2833,
      "VIUS": 2834,
      "ZAB": 2835,
      "orth": 2836,
      "Ġfill": 2837,
      "enge": 2838,
      "ĠHarry": 2839,
      "ĠELI": 2840,
      "ARENCE": 2841,
      "astard": 2842,
      "ieu": 2843,
      "INGBROKE": 2844,
      "OLINGBROKE": 2845,
      "Ġaffection": 2846,
      "Ġchur": 2847,
      "Ġchance": 2848,
      "ĠLAFE": 2849,
      "ĠNever": 2850,
      "ĠPRINCESS": 2851,
      "ZABETH": 2852,
      "ĠELIZABETH": 2853,
      "ĠLAFEU": 2854,
      "NE": 2855,
      "Ġmist": 2856,
      "ited": 2857,
      "Ġcross": 2858,
      "ĠAm": 2859,
      "Ġbehind": 2860,
      "ĠBOLINGBROKE": 2861,
      "ĠHast": 2862,
      "imon": 2863,
      "Ġissue": 2864,
      "ENS": 2865,
      "Ġwouldst": 2866,
      "une": 2867,
      "ADO": 2868,
      "ĠHamlet": 2869,
      "Ġresol": 2870,
      "Ġcheer": 2871,
      "ĠCOUNTESS": 2872,
      "ĠARMADO": 2873,
      "Tw": 2874,
      "ying": 2875,
      "Ġfeed": 2876,
      "ĠAb": 2877,
      "Ġgift": 2878,
      "lex": 2879,
      "ĠMUR": 2880,
      "ĠPom": 2881,
      "urs": 2882,
      "Ġexec": 2883,
      "Ġheads": 2884,
      "Ġsecond": 2885,
      "Ġenemies": 2886,
      "ĠCASSIO": 2887,
      "ĠCLARENCE": 2888,
      "HY": 2889,
      "ny": 2890,
      "inces": 2891,
      "Ġble": 2892,
      "Ġocc": 2893,
      "Ġcru": 2894,
      "Ġlust": 2895,
      "ĠBel": 2896,
      "Ġeffect": 2897,
      "idd": 2898,
      "EST": 2899,
      "Ġshad": 2900,
      "ardin": 2901,
      "resh": 2902,
      "fere": 2903,
      "Ġworship": 2904,
      "Ġran": 2905,
      "Ġbreast": 2906,
      "ANTUS": 2907,
      "EMANTUS": 2908,
      "ĠMarg": 2909,
      "Ġsouls": 2910,
      "claim": 2911,
      "LIFF": 2912,
      "Ġgives": 2913,
      "Ġacqu": 2914,
      "ĠEMILIA": 2915,
      "ĠAPEMANTUS": 2916,
      "ĠInd": 2917,
      "Ġhost": 2918,
      "ĠFa": 2919,
      "raw": 2920,
      "umph": 2921,
      "Ġpoison": 2922,
      "Ġfortunes": 2923,
      "Ġpretty": 2924,
      "ĠSignior": 2925,
      "Ġut": 2926,
      "arl": 2927,
      "ancy": 2928,
      "ety": 2929,
      "ram": 2930,
      "ĠKate": 2931,
      "ĠKnow": 2932,
      "Ġourselves": 2933,
      "ĠANNE": 2934,
      "ument": 2935,
      "Ġalong": 2936,
      "Ġobs": 2937,
      "Ġtreason": 2938,
      "ĠRoman": 2939,
      "ĠFriar": 2940,
      "BEL": 2941,
      "Ġtale": 2942,
      "Ġshi": 2943,
      "Ġbow": 2944,
      "Ġpost": 2945,
      "Ġhealth": 2946,
      "ĠHot": 2947,
      "ider": 2948,
      "Ġrevere": 2949,
      "Ġlion": 2950,
      "vern": 2951,
      "Ġnoise": 2952,
      "ils": 2953,
      "Ġoffer": 2954,
      "Ġparts": 2955,
      "peror": 2956,
      "Ġmighty": 2957,
      "Ġchoose": 2958,
      "YMBEL": 2959,
      "YMBELINE": 2960,
      "ETER": 2961,
      "VANS": 2962,
      "ging": 2963,
      "Ġign": 2964,
      "Ġsatisf": 2965,
      "Ġforget": 2966,
      "ĠPOST": 2967,
      "ĠEVANS": 2968,
      "alb": 2969,
      "ural": 2970,
      "Ġkings": 2971,
      "Ġpride": 2972,
      "Ġunk": 2973,
      "ĠBecause": 2974,
      "Ġlonger": 2975,
      "Ġsmall": 2976,
      "ĠMARIA": 2977,
      "force": 2978,
      "Ġsecret": 2979,
      "ĠSENATOR": 2980,
      "bury": 2981,
      "chan": 2982,
      "oint": 2983,
      "Ġtent": 2984,
      "ises": 2985,
      "omp": 2986,
      "Ġworst": 2987,
      "Ġproceed": 2988,
      "Ġwrite": 2989,
      "ĠAlb": 2990,
      "Ġseems": 2991,
      "Ġbuy": 2992,
      "ĠTRANIO": 2993,
      "Ġpaper": 2994,
      "ners": 2995,
      "Ġmir": 2996,
      "ĠTimon": 2997,
      "ĠPage": 2998,
      "ONE": 2999,
      "Ġconqu": 3000,
      "Ġsafe": 3001,
      "ĠMark": 3002,
      "Ġpatient": 3003,
      "Ġpromise": 3004,
      "ĠLucius": 3005,
      "Ġpossess": 3006,
      "Ġladies": 3007,
      "Ġhurt": 3008,
      "Ġexcellent": 3009,
      "IEL": 3010,
      "fully": 3011,
      "Ġfetch": 3012,
      "anch": 3013,
      "Ġinv": 3014,
      "ĠCYMBELINE": 3015,
      "ĠHark": 3016,
      "OLS": 3017,
      "Ġmarch": 3018,
      "Ġpresence": 3019,
      "].": 3020,
      "so": 3021,
      "tend": 3022,
      "Ġer": 3023,
      "Ġdied": 3024,
      "Ġthrow": 3025,
      "ĠHea": 3026,
      "ĠPH": 3027,
      "Ġreceive": 3028,
      "Ġvow": 3029,
      "aunt": 3030,
      "Ġarg": 3031,
      "ĠANGELO": 3032,
      "ĠQu": 3033,
      "Ġbreed": 3034,
      "Ġlabour": 3035,
      "ealous": 3036,
      "twas": 3037,
      "Ġtrouble": 3038,
      "Ġteach": 3039,
      "Ġmurd": 3040,
      "Ġdrown": 3041,
      "Ġgates": 3042,
      "ĠHERM": 3043,
      "STARD": 3044,
      "ĠCOSTARD": 3045,
      "ages": 3046,
      "Ġhonourable": 3047,
      "Ġbears": 3048,
      "Ġrememb": 3049,
      "Ġawhile": 3050,
      "Ġdamn": 3051,
      "Ġforgot": 3052,
      "Ġbirth": 3053,
      "Ġorder": 3054,
      "ĠKATHERINA": 3055,
      "Ġjudgment": 3056,
      "gl": 3057,
      "len": 3058,
      "Ġap": 3059,
      "Ġsor": 3060,
      "set": 3061,
      "ĠSil": 3062,
      "leep": 3063,
      "ĠGU": 3064,
      "ĠGentle": 3065,
      "iew": 3066,
      "ago": 3067,
      "Ġleast": 3068,
      "Ġcommend": 3069,
      "Ġfools": 3070,
      "Ġfoolish": 3071,
      "Ġjudge": 3072,
      "Ġbrief": 3073,
      "Ġwisdom": 3074,
      "aves": 3075,
      "iam": 3076,
      "Ġsn": 3077,
      "Ġmatch": 3078,
      "Ġfine": 3079,
      "Ġyear": 3080,
      "staff": 3081,
      "ĠSaint": 3082,
      "ĠCON": 3083,
      "ĠHold": 3084,
      "Ġforsw": 3085,
      "Ġstud": 3086,
      "rust": 3087,
      "cted": 3088,
      "Ġgoing": 3089,
      "othing": 3090,
      "ĠFortune": 3091,
      "ERSIT": 3092,
      "Ġflatter": 3093,
      "ĠTHERSIT": 3094,
      "Ġanything": 3095,
      "ude": 3096,
      "Ġconsent": 3097,
      "ledge": 3098,
      "Ġvalour": 3099,
      "Ġdangerous": 3100,
      "ĠTHERSITES": 3101,
      "VOL": 3102,
      "oke": 3103,
      "under": 3104,
      "ze": 3105,
      "Ġwood": 3106,
      "Ġdull": 3107,
      "ĠTy": 3108,
      "ĠTit": 3109,
      "Ġins": 3110,
      "ĠBet": 3111,
      "ĠMess": 3112,
      "Ġemp": 3113,
      "ourn": 3114,
      "ARINE": 3115,
      "ANO": 3116,
      "rupt": 3117,
      "ilus": 3118,
      "Ġgod": 3119,
      "INGS": 3120,
      "elcome": 3121,
      "arence": 3122,
      "Ġqual": 3123,
      "ARDIN": 3124,
      "Ġwhore": 3125,
      "ĠEdg": 3126,
      "Ġcurse": 3127,
      "Ġvirtuous": 3128,
      "ĠKATHARINE": 3129,
      "ardinal": 3130,
      "VOLIO": 3131,
      "HUM": 3132,
      "via": 3133,
      "ĠALL": 3134,
      "ĠChar": 3135,
      "ĠĠĠĠĠĠĠĠĠĠĠĠĠĠĠĠĠĠĠĠĠĠĠĠĠĠĠĠ": 3136,
      "asion": 3137,
      "ĠGu": 3138,
      "ĠGon": 3139,
      "Ġsole": 3140,
      "Ġsucc": 3141,
      "iff": 3142,
      "ify": 3143,
      "Ġknock": 3144,
      "Ġneigh": 3145,
      "Ġsaf": 3146,
      "ĠClarence": 3147,
      "Ġentertain": 3148,
      "Ġfaults": 3149,
      "ĠMALVOLIO": 3150,
      "ĠPOSTHUM": 3151,
      "ĠPOSTHUMUS": 3152,
      "nown": 3153,
      "Ġtor": 3154,
      "Ġwed": 3155,
      "eng": 3156,
      "Ġhorn": 3157,
      "ingly": 3158,
      "ĠHAST": 3159,
      "ĠHORT": 3160,
      "ĠMOTH": 3161,
      "ility": 3162,
      "ĠHelen": 3163,
      "THUM": 3164,
      "Ġunw": 3165,
      "ISBURY": 3166,
      "Ġperceive": 3167,
      "BERLAND": 3168,
      "Ġquarrel": 3169,
      "ĠHORTENS": 3170,
      "THUMBERLAND": 3171,
      "oly": 3172,
      "ual": 3173,
      "Ġwon": 3174,
      "Ġwent": 3175,
      "ĠGreat": 3176,
      "Ġamong": 3177,
      "Ġoffence": 3178,
      "Ġtroth": 3179,
      "Ġkept": 3180,
      "ĠStay": 3181,
      "ĠSuff": 3182,
      "ĠFalstaff": 3183,
      "ĠSALISBURY": 3184,
      "ĠPompe": 3185,
      "ĠHASTINGS": 3186,
      "Ġfresh": 3187,
      "ĠTalb": 3188,
      "ĠMine": 3189,
      "ĠEarl": 3190,
      "Ġanon": 3191,
      "ĠThink": 3192,
      "iles": 3193,
      "Ġblind": 3194,
      "icul": 3195,
      "Ġjealous": 3196,
      "ĠULY": 3197,
      "osition": 3198,
      "Ġshows": 3199,
      "SSES": 3200,
      "Ġcounter": 3201,
      "Ġopin": 3202,
      "Ġdepart": 3203,
      "ĠNORTHUMBERLAND": 3204,
      "ĠULYSSES": 3205,
      "oot": 3206,
      "twere": 3207,
      "Ġver": 3208,
      "Ġpi": 3209,
      "ĠWOLS": 3210,
      "ĠBes": 3211,
      "Ġforward": 3212,
      "right": 3213,
      "ĠDost": 3214,
      "ĠNothing": 3215,
      "OLY": 3216,
      "Ġenc": 3217,
      "ĠAttend": 3218,
      "Ġquickly": 3219,
      "Ġviol": 3220,
      "Ġbitter": 3221,
      "ĠHeaven": 3222,
      "ĠWOLSEY": 3223,
      "AIN": 3224,
      "AQU": 3225,
      "IE": 3226,
      "pher": 3227,
      "uri": 3228,
      "Ġbab": 3229,
      "llo": 3230,
      "Ġdri": 3231,
      "ĠMe": 3232,
      "ĠFool": 3233,
      "ales": 3234,
      "ĠJAQU": 3235,
      "ume": 3236,
      "Ġuns": 3237,
      "Ġquiet": 3238,
      "Ġoffic": 3239,
      "Ġangry": 3240,
      "Ġtitle": 3241,
      "ĠPompey": 3242,
      "ĠTalbot": 3243,
      "EK": 3244,
      "UEC": 3245,
      "VOST": 3246,
      "ax": 3247,
      "ca": 3248,
      "Ġmasters": 3249,
      "Ġwast": 3250,
      "Ġpains": 3251,
      "ĠWelcome": 3252,
      "Ġmeasure": 3253,
      "ĠFL": 3254,
      "Ġshar": 3255,
      "Ġseal": 3256,
      "Ġherself": 3257,
      "Ġvain": 3258,
      "Ġamb": 3259,
      "emn": 3260,
      "Ġprot": 3261,
      "ĠPROVOST": 3262,
      "Ġfearful": 3263,
      "Ġperform": 3264,
      "ĠAthe": 3265,
      "Ġhumour": 3266,
      "Ġpract": 3267,
      "ĠAGUEC": 3268,
      "HEEK": 3269,
      "ĠParis": 3270,
      "Ġcruel": 3271,
      "ĠFaith": 3272,
      "ĠAGUECHEEK": 3273,
      "CK": 3274,
      "ered": 3275,
      "gin": 3276,
      "oes": 3277,
      "phe": 3278,
      "rid": 3279,
      "Ġtaken": 3280,
      "Ġay": 3281,
      "arch": 3282,
      "arge": 3283,
      "ĠSHY": 3284,
      "ĠCorn": 3285,
      "ĠGree": 3286,
      "Ġshake": 3287,
      "Ġnob": 3288,
      "Ġview": 3289,
      "ĠJew": 3290,
      "Ġround": 3291,
      "LOCK": 3292,
      "ĠCLOTEN": 3293,
      "Ġcarry": 3294,
      "ĠTroilus": 3295,
      "ĠWhom": 3296,
      "ĠEmperor": 3297,
      "Ġdinner": 3298,
      "ĠSHYLOCK": 3299,
      "dge": 3300,
      "zen": 3301,
      "Ġtakes": 3302,
      "Ġbastard": 3303,
      "ĠIago": 3304,
      "Ġda": 3305,
      "Ġpain": 3306,
      "chief": 3307,
      "Ġele": 3308,
      "ided": 3309,
      "ease": 3310,
      "host": 3311,
      "Ġblow": 3312,
      "ĠJove": 3313,
      "ĠVal": 3314,
      "IMO": 3315,
      "ĠAnton": 3316,
      "ĠCassius": 3317,
      "Ġsummer": 3318,
      "ĠBOYET": 3319,
      "AV": 3320,
      "HIMO": 3321,
      "PT": 3322,
      "born": 3323,
      "cil": 3324,
      "cene": 3325,
      "eks": 3326,
      "min": 3327,
      "Ġwid": 3328,
      "ĠIAC": 3329,
      "ĠInto": 3330,
      "Ġfier": 3331,
      "essed": 3332,
      "ĠACH": 3333,
      "ato": 3334,
      "ature": 3335,
      "ĠSe": 3336,
      "edy": 3337,
      "ĠESC": 3338,
      "Ġstar": 3339,
      "Ġmanner": 3340,
      "ALUS": 3341,
      "Ġproof": 3342,
      "Ġrasc": 3343,
      "Ġplague": 3344,
      "Ġjew": 3345,
      "Ġlaid": 3346,
      "Ġarmy": 3347,
      "ILLES": 3348,
      "ĠLUCENTIO": 3349,
      "Ġgreen": 3350,
      "ĠUnless": 3351,
      "Ġsorry": 3352,
      "ĠHORTENSIO": 3353,
      "ĠIACHIMO": 3354,
      "ĠACHILLES": 3355,
      "ĠESCALUS": 3356,
      "RIANA": 3357,
      "loy": 3358,
      "ror": 3359,
      "rate": 3360,
      "Ġ2": 3361,
      "Ġsus": 3362,
      "stance": 3363,
      "ĠBoth": 3364,
      "ĠCardinal": 3365,
      "ĠDou": 3366,
      "ames": 3367,
      "Ġshape": 3368,
      "ĠVer": 3369,
      "ĠUnder": 3370,
      "Ġgrand": 3371,
      "IDIUS": 3372,
      "Ġbrain": 3373,
      "ucking": 3374,
      "Ġdouble": 3375,
      "Ġgolden": 3376,
      "Ġignor": 3377,
      "BOT": 3378,
      "NON": 3379,
      "Ġsort": 3380,
      "Ġsland": 3381,
      "Ġwhi": 3382,
      "itors": 3383,
      "Ġpiece": 3384,
      "ĠSOM": 3385,
      "ley": 3386,
      "irc": 3387,
      "illes": 3388,
      "Ġevil": 3389,
      "rac": 3390,
      "ĠRo": 3391,
      "Ġconcl": 3392,
      "aret": 3393,
      "Ġhonesty": 3394,
      "Ġalive": 3395,
      "ĠWithin": 3396,
      "Ġcalls": 3397,
      "Ġfellows": 3398,
      "airs": 3399,
      "Ġdrum": 3400,
      "Ġdrunk": 3401,
      "Ġjoin": 3402,
      "ĠCONST": 3403,
      "AU": 3404,
      "OUCH": 3405,
      "Ġtry": 3406,
      "Ġfrown": 3407,
      "ĠTw": 3408,
      "ĠTOUCH": 3409,
      "enger": 3410,
      "vey": 3411,
      "Ġinno": 3412,
      "ĠBard": 3413,
      "ĠFie": 3414,
      "ĠFirst": 3415,
      "urst": 3416,
      "STONE": 3417,
      "Ġours": 3418,
      "Ġthence": 3419,
      "ĠVen": 3420,
      "ISTA": 3421,
      "Ġprayers": 3422,
      "Ġcontin": 3423,
      "ĠQUICK": 3424,
      "ĠArt": 3425,
      "Ġtemp": 3426,
      "ĠBAPT": 3427,
      "ĠMoor": 3428,
      "ĠTOUCHSTONE": 3429,
      "ĠQUICKLY": 3430,
      "ĠBAPTISTA": 3431,
      "MED": 3432,
      "beth": 3433,
      "ding": 3434,
      "gy": 3435,
      "Ġmut": 3436,
      "Ġcred": 3437,
      "Ġthro": 3438,
      "ĠSTE": 3439,
      "Ġstop": 3440,
      "ĠDIO": 3441,
      "Ġlibert": 3442,
      "ilty": 3443,
      "though": 3444,
      "Ġblame": 3445,
      "ĠCOMINIUS": 3446,
      "Ġglory": 3447,
      "Ġimport": 3448,
      "Ġinstant": 3449,
      "Ġrequest": 3450,
      "Ġdishon": 3451,
      "ĠBASSANIO": 3452,
      "ĠAntonio": 3453,
      "MEDES": 3454,
      "ĠDIOMEDES": 3455,
      "Scene": 3456,
      "YS": 3457,
      "con": 3458,
      "king": 3459,
      "Ġmethinks": 3460,
      "Ġwert": 3461,
      "Ġfled": 3462,
      "Ġdest": 3463,
      "att": 3464,
      "Ġbeha": 3465,
      "Ġdec": 3466,
      "ARIUS": 3467,
      "Ġconce": 3468,
      "unning": 3469,
      "Ġhearing": 3470,
      "Ġbeggar": 3471,
      "ILLO": 3472,
      "Ġpurse": 3473,
      "ĠMARCUS": 3474,
      "Ġbroke": 3475,
      "Ġdelight": 3476,
      "Ġwalls": 3477,
      "Ġscarce": 3478,
      "ĠCAMILLO": 3479,
      "Ġchurch": 3480,
      "ĠMargaret": 3481,
      "ĠSuffolk": 3482,
      "FOLK": 3483,
      "head": 3484,
      "Ġwine": 3485,
      "orm": 3486,
      "ĠAch": 3487,
      "oman": 3488,
      "Ġgross": 3489,
      "ĠWilt": 3490,
      "Ġmel": 3491,
      "Ġwealth": 3492,
      "Ġstood": 3493,
      "UST": 3494,
      "Ġswift": 3495,
      "ISH": 3496,
      "IANO": 3497,
      "ĠMarcius": 3498,
      "Ġobey": 3499,
      "Ġprisoner": 3500,
      "Ġcondition": 3501,
      "ĠNORFOLK": 3502,
      "ĠMacbeth": 3503,
      "ĠTyb": 3504,
      "OV": 3505,
      "su": 3506,
      "Ġsch": 3507,
      "ished": 3508,
      "Ġfi": 3509,
      "ĠTAL": 3510,
      "Ġthither": 3511,
      "Ġbecause": 3512,
      "Ġinj": 3513,
      "ĠPle": 3514,
      "ĠEre": 3515,
      "rice": 3516,
      "ENES": 3517,
      "Ġdemand": 3518,
      "iful": 3519,
      "Ġshepher": 3520,
      "Ġsav": 3521,
      "cient": 3522,
      "ĠCaptain": 3523,
      "ĠAngel": 3524,
      "Ġhumble": 3525,
      "Ġmonth": 3526,
      "Ġdefend": 3527,
      "Ġmotion": 3528,
      "Ġsuccess": 3529,
      "Ġopinion": 3530,
      "DUFF": 3531,
      "NIA": 3532,
      "ians": 3533,
      "joy": 3534,
      "mn": 3535,
      "mia": 3536,
      "Ġsix": 3537,
      "Ġwounds": 3538,
      "Ġba": 3539,
      "Ġbare": 3540,
      "itiz": 3541,
      "ĠAfter": 3542,
      "ĠServ": 3543,
      "ĠBucking": 3544,
      "ĠMont": 3545,
      "ĠFair": 3546,
      "Ġaside": 3547,
      "ĠThose": 3548,
      "ĠJack": 3549,
      "Ġhadst": 3550,
      "Ġgreater": 3551,
      "ĠPrithee": 3552,
      "ADRIANA": 3553,
      "Ġtrans": 3554,
      "ĠCAIUS": 3555,
      "ĠĠĠĠĠĠĠĠĠĠĠĠĠĠĠĠĠĠĠĠĠĠĠĠĠĠĠĠĠ": 3556,
      "Ġbestow": 3557,
      "ĠMACDUFF": 3558,
      "ĠBrit": 3559,
      "Ġtrain": 3560,
      "Ġdrawn": 3561,
      "Ġtrumpet": 3562,
      "Ġpubl": 3563,
      "Ġstruck": 3564,
      "ĠTALBOT": 3565,
      "ĠAngelo": 3566,
      "ĠBuckingham": 3567,
      "IX": 3568,
      "MIAN": 3569,
      "ker": 3570,
      "mble": 3571,
      "Ġes": 3572,
      "Ġtear": 3573,
      "Ġav": 3574,
      "Ġbreat": 3575,
      "Ġcatch": 3576,
      "Ġcirc": 3577,
      "Ġheld": 3578,
      "Ġgent": 3579,
      "ĠBEL": 3580,
      "ĠHU": 3581,
      "Ġliv": 3582,
      "ERSET": 3583,
      "icked": 3584,
      "Ġfolly": 3585,
      "Ġrogue": 3586,
      "Ġwits": 3587,
      "ATIANO": 3588,
      "ĠLORDS": 3589,
      "uthor": 3590,
      "Ġstreet": 3591,
      "Ġmonst": 3592,
      "ĠGRATIANO": 3593,
      "Ġcolour": 3594,
      "Ġseveral": 3595,
      "ĠIndeed": 3596,
      "ĠSOMERSET": 3597,
      "broke": 3598,
      "iest": 3599,
      "sper": 3600,
      "Ġbot": 3601,
      "Ġcre": 3602,
      "Ġlist": 3603,
      "Ġpet": 3604,
      "ved": 3605,
      "ĠMen": 3606,
      "Ġeld": 3607,
      "ĠPIS": 3608,
      "ĠEX": 3609,
      "Ġur": 3610,
      "ĠLest": 3611,
      "ĠGre": 3612,
      "Ġref": 3613,
      "Ġkneel": 3614,
      "Ġvan": 3615,
      "Ġunf": 3616,
      "ĠWithout": 3617,
      "Ġchast": 3618,
      "Ġleg": 3619,
      "ĠCHARMIAN": 3620,
      "phin": 3621,
      "They": 3622,
      "Ġbright": 3623,
      "Ġwinter": 3624,
      "ĠRosal": 3625,
      "comes": 3626,
      "orthy": 3627,
      "ĠMURDER": 3628,
      "ference": 3629,
      "Ġsharp": 3630,
      "ĠPISANIO": 3631,
      "ged": 3632,
      "mbl": 3633,
      "ts": 3634,
      "read": 3635,
      "Ġcunning": 3636,
      "ĠAp": 3637,
      "Ġpure": 3638,
      "ĠFo": 3639,
      "ĠFLU": 3640,
      "Ġdeare": 3641,
      "usion": 3642,
      "Ġfaire": 3643,
      "Ġblessed": 3644,
      "ĠĠĠĠĠĠĠĠĠĠĠĠĠĠĠĠĠĠĠĠĠĠĠĠĠĠĠĠĠĠĠĠĠĠĠĠĠĠĠĠĠĠĠĠĠĠĠĠĠĠĠĠĠĠĠĠ": 3645,
      "Ġgreatness": 3646,
      "Ġdeserve": 3647,
      "ELLEN": 3648,
      "Ġprecious": 3649,
      "ĠWilliam": 3650,
      "Ġwait": 3651,
      "ĠAchilles": 3652,
      "ĠBELARIUS": 3653,
      "ĠFLUELLEN": 3654,
      "REY": 3655,
      "With": 3656,
      "cer": 3657,
      "ov": 3658,
      "Ġaught": 3659,
      "Ġmid": 3660,
      "Ġbones": 3661,
      "Ġcamp": 3662,
      "vell": 3663,
      "Ġmere": 3664,
      "Ġequ": 3665,
      "entine": 3666,
      "amb": 3667,
      "ellow": 3668,
      "Ġknowledge": 3669,
      "ical": 3670,
      "Ġsirrah": 3671,
      "ission": 3672,
      "Ġremain": 3673,
      "Ġendure": 3674,
      "ĠNorth": 3675,
      "ĠBring": 3676,
      "Ġtrib": 3677,
      "Ġcheek": 3678,
      "Ġpriest": 3679,
      "Ġborne": 3680,
      "Ġdispatch": 3681,
      "Ġshadow": 3682,
      "Re": 3683,
      "iol": 3684,
      "more": 3685,
      "Ġtaste": 3686,
      "reed": 3687,
      "Ġben": 3688,
      "orous": 3689,
      "Ġlend": 3690,
      "Ġthird": 3691,
      "ĠCAL": 3692,
      "ĠLanc": 3693,
      "ways": 3694,
      "Ġwherefore": 3695,
      "ADE": 3696,
      "ĠARIEL": 3697,
      "ANDER": 3698,
      "Ġrude": 3699,
      "Ġboys": 3700,
      "Ġobedi": 3701,
      "ĠHOSTESS": 3702,
      "Ġexcuse": 3703,
      "Ġwretched": 3704,
      "Ġforbid": 3705,
      "LIFFORD": 3706,
      "ISHOP": 3707,
      "ĠLancaster": 3708,
      "EUS": 3709,
      "FORD": 3710,
      "LES": 3711,
      "ug": 3712,
      "Ġwicked": 3713,
      "Ġloud": 3714,
      "Ġpol": 3715,
      "Ġpun": 3716,
      "ane": 3717,
      "ĠCLIFFORD": 3718,
      "ĠEn": 3719,
      "ident": 3720,
      "ĠDau": 3721,
      "Ġdeg": 3722,
      "Ġancient": 3723,
      "hys": 3724,
      "Ġfears": 3725,
      "Ġrain": 3726,
      "Ġcompl": 3727,
      "Ġtongues": 3728,
      "Ġgreet": 3729,
      "ize": 3730,
      "ĠPoor": 3731,
      "Ġterms": 3732,
      "Ġprincely": 3733,
      "Ġvisit": 3734,
      "Ġsafety": 3735,
      "ĠSTEPH": 3736,
      "ĠDauphin": 3737,
      "MOR": 3738,
      "Ġfru": 3739,
      "Ġfig": 3740,
      "ester": 3741,
      "Ġnurse": 3742,
      "ĠAUT": 3743,
      "Ġheels": 3744,
      "ĠBer": 3745,
      "ĠHence": 3746,
      "Ġyourselves": 3747,
      "ERIUS": 3748,
      "rain": 3749,
      "ilia": 3750,
      "Ġneck": 3751,
      "Ġnecess": 3752,
      "Ġgoodly": 3753,
      "Ġconj": 3754,
      "Ġgovern": 3755,
      "ĠJUST": 3756,
      "Ġclaim": 3757,
      "IDERIUS": 3758,
      "BERT": 3759,
      "Ġholds": 3760,
      "Ġcourtes": 3761,
      "UMIO": 3762,
      "Ġwrongs": 3763,
      "ĠGRUMIO": 3764,
      "ĠROSALINE": 3765,
      "Ġembrace": 3766,
      "ĠSILVIA": 3767,
      "ĠChristian": 3768,
      "Ġbleed": 3769,
      "Ġoccasion": 3770,
      "ĠGUIDERIUS": 3771,
      "OLYCUS": 3772,
      "Ġshepherd": 3773,
      "itizens": 3774,
      "ĠSTEPHANO": 3775,
      "ĠAUTOLYCUS": 3776,
      "CA": 3777,
      "mon": 3778,
      "pos": 3779,
      "sh": 3780,
      "ua": 3781,
      "Ġauthor": 3782,
      "Ġsen": 3783,
      "Ġsong": 3784,
      "Ġdies": 3785,
      "Ġlarge": 3786,
      "ĠAAR": 3787,
      "cend": 3788,
      "Ġmem": 3789,
      "ĠFran": 3790,
      "ĠPO": 3791,
      "ĠLondon": 3792,
      "ĠGet": 3793,
      "Ġmanners": 3794,
      "icious": 3795,
      "Ġprinces": 3796,
      "Ġrough": 3797,
      "ĠVOL": 3798,
      "Ġshouldst": 3799,
      "Ġquite": 3800,
      "ĠUnto": 3801,
      "ustom": 3802,
      "perate": 3803,
      "Ġbrothers": 3804,
      "Ġimm": 3805,
      "Ġadvantage": 3806,
      "ECTOR": 3807,
      "Ġgrows": 3808,
      "Ġforest": 3809,
      "Ġdrop": 3810,
      "Ġclear": 3811,
      "Ġprivate": 3812,
      "ronic": 3813,
      "chance": 3814,
      "ĠPHIL": 3815,
      "ĠJAQUES": 3816,
      "Ġwidow": 3817,
      "ĠEXETER": 3818,
      "ĠMURDERER": 3819,
      "ĠAARON": 3820,
      "cul": 3821,
      "iance": 3822,
      "Ġir": 3823,
      "here": 3824,
      "Ġmur": 3825,
      "Ġbrow": 3826,
      "ora": 3827,
      "Ġowe": 3828,
      "Ġdue": 3829,
      "ĠTime": 3830,
      "Ġhor": 3831,
      "Ġpin": 3832,
      "Ġbend": 3833,
      "ĠSal": 3834,
      "ĠCould": 3835,
      "ĠMort": 3836,
      "ĠPet": 3837,
      "Ġweary": 3838,
      "ĠLea": 3839,
      "Ġspend": 3840,
      "Ġfail": 3841,
      "Ġvir": 3842,
      "Ġdism": 3843,
      "Ġfoes": 3844,
      "Ġwrath": 3845,
      "Ġintend": 3846,
      "Ġglass": 3847,
      "Ġsmile": 3848,
      "Ġcheeks": 3849,
      "Ġchoice": 3850,
      "Ġliberty": 3851,
      "Reads": 3852,
      "hysic": 3853,
      "ĠVOLUM": 3854,
      "LEN": 3855,
      "eat": 3856,
      "Ġbount": 3857,
      "orge": 3858,
      "Ġdwell": 3859,
      "Ġcorn": 3860,
      "Ġlest": 3861,
      "Ġthreat": 3862,
      "Ġheat": 3863,
      "ĠWhile": 3864,
      "ĠSom": 3865,
      "ĠSLEN": 3866,
      "ĠCADE": 3867,
      "ĠHECTOR": 3868,
      "utation": 3869,
      "Ġmend": 3870,
      "Ġformer": 3871,
      "ĠFord": 3872,
      "Ġweap": 3873,
      "Ġrevol": 3874,
      "Ġdebt": 3875,
      "ĠRi": 3876,
      "ĠRem": 3877,
      "ĠKeep": 3878,
      "olph": 3879,
      "Ġexpect": 3880,
      "Ġlegs": 3881,
      "ĠSirrah": 3882,
      "Ġappare": 3883,
      "Ġpersu": 3884,
      "ĠPoins": 3885,
      "Ġcreature": 3886,
      "Ġmalice": 3887,
      "ancholy": 3888,
      "Ġemploy": 3889,
      "ĠJUSTICE": 3890,
      "ĠSLENDER": 3891,
      "cus": 3892,
      "rim": 3893,
      "erset": 3894,
      "Ġce": 3895,
      "Ġpot": 3896,
      "ĠCARDIN": 3897,
      "ĠMethinks": 3898,
      "edick": 3899,
      "Ġsteel": 3900,
      "ĠGA": 3901,
      "Ġdeal": 3902,
      "Ġwash": 3903,
      "Ġusur": 3904,
      "Ġrans": 3905,
      "Ġunp": 3906,
      "unes": 3907,
      "Ġdesires": 3908,
      "Ġleaves": 3909,
      "Ġparticul": 3910,
      "EMIO": 3911,
      "ocks": 3912,
      "Ġcontr": 3913,
      "ĠAnne": 3914,
      "acle": 3915,
      "Ġguilty": 3916,
      "Ġmajesty": 3917,
      "Ġmonster": 3918,
      "ĠGREMIO": 3919,
      "ULINA": 3920,
      "Ġthrice": 3921,
      "Ġutter": 3922,
      "ĠBardolph": 3923,
      "Ġmelancholy": 3924,
      "ĠFollow": 3925,
      "ĠCARDINAL": 3926,
      "'-": 3927,
      "afe": 3928,
      "ĠTower": 3929,
      "Ġthief": 3930,
      "anio": 3931,
      "ances": 3932,
      "Ġga": 3933,
      "ĠBol": 3934,
      "ĠCast": 3935,
      "ays": 3936,
      "Ġmeat": 3937,
      "ĠMade": 3938,
      "ĠMONT": 3939,
      "ĠPOL": 3940,
      "ĠLo": 3941,
      "ERN": 3942,
      "Ġstain": 3943,
      "ract": 3944,
      "ander": 3945,
      "Ġamaz": 3946,
      "Ġblows": 3947,
      "Ġleis": 3948,
      "EMNON": 3949,
      "Ġcommit": 3950,
      "Ġkeeps": 3951,
      "ĠPAULINA": 3952,
      "AMEMNON": 3953,
      "Ġmaiden": 3954,
      "ĠJuliet": 3955,
      "Ġwanton": 3956,
      "Ġoaths": 3957,
      "ĠAGAMEMNON": 3958,
      "chant": 3959,
      "Ġsimple": 3960,
      "IXENES": 3961,
      "Within": 3962,
      "ĠSomerset": 3963,
      "ĠPOLIXENES": 3964,
      "dem": 3965,
      "ounter": 3966,
      "Ġsens": 3967,
      "Ġfie": 3968,
      "Ġfaint": 3969,
      "Ġow": 3970,
      "Ġdance": 3971,
      "Ġcat": 3972,
      "Ġhunt": 3973,
      "Ġphysic": 3974,
      "ingbroke": 3975,
      "Ġmed": 3976,
      "ĠFAB": 3977,
      "ĠPardon": 3978,
      "ĠĠĠĠĠĠĠĠĠĠĠĠĠĠĠĠĠĠĠĠĠĠĠĠĠĠĠĠĠĠ": 3979,
      "Ġsto": 3980,
      "Ġstory": 3981,
      "Ġstars": 3982,
      "Ġnose": 3983,
      "Ġspent": 3984,
      "ards": 3985,
      "Ġmadness": 3986,
      "Ġsail": 3987,
      "Ġabro": 3988,
      "Ġroom": 3989,
      "Ġhonours": 3990,
      "Ġways": 3991,
      "Ġfalls": 3992,
      "Ġswords": 3993,
      "ĠCHARLES": 3994,
      "Ġthrone": 3995,
      "Ġapproach": 3996,
      "Ġargument": 3997,
      "ĠVOLUMNIA": 3998,
      "ĠBolingbroke": 3999,
      "ĠFABIAN": 4000,
      "AX": 4001,
      "JAX": 4002,
      "oc": 4003,
      "og": 4004,
      "vail": 4005,
      "Ġwond": 4006,
      "Ġfame": 4007,
      "Ġfew": 4008,
      "Ġdry": 4009,
      "Ġnay": 4010,
      "Ġgain": 4011,
      "ĠWor": 4012,
      "ĠBIAN": 4013,
      "ĠOff": 4014,
      "ĠPUC": 4015,
      "Ġstuff": 4016,
      "ified": 4017,
      "Ġvent": 4018,
      "ppy": 4019,
      "Ġproper": 4020,
      "Ġchain": 4021,
      "Ġbetray": 4022,
      "Ġwherein": 4023,
      "Ġrob": 4024,
      "Ġrose": 4025,
      "ĠWherein": 4026,
      "Ġperfect": 4027,
      "Ġrare": 4028,
      "ELLE": 4029,
      "Ġcourage": 4030,
      "ĠQUIN": 4031,
      "orses": 4032,
      "ĠBenedick": 4033,
      "ĠEdmund": 4034,
      "Ġidle": 4035,
      "Ġtyrant": 4036,
      "Ġfinger": 4037,
      "Ġmurder": 4038,
      "ĠValentine": 4039,
      "Ġmonstrous": 4040,
      "ĠBIANCA": 4041,
      "ĠPUCELLE": 4042,
      "London": 4043,
      "ees": 4044,
      "ient": 4045,
      "sp": 4046,
      "wise": 4047,
      "woman": 4048,
      "Ġed": 4049,
      "Ġaid": 4050,
      "Ġsli": 4051,
      "Ġship": 4052,
      "Ġwag": 4053,
      "oral": 4054,
      "Ġfought": 4055,
      "Ġod": 4056,
      "Ġcost": 4057,
      "Ġthunder": 4058,
      "aring": 4059,
      "Ġheed": 4060,
      "Ġgir": 4061,
      "ĠST": 4062,
      "ĠPut": 4063,
      "ourse": 4064,
      "ifford": 4065,
      "Ġknee": 4066,
      "Ġvows": 4067,
      "Ġshore": 4068,
      "THE": 4069,
      "Ġrise": 4070,
      "Ġunless": 4071,
      "Ġmayst": 4072,
      "Ġproclaim": 4073,
      "Ġchall": 4074,
      "Ġdesert": 4075,
      "ĠWherefore": 4076,
      "Ġimag": 4077,
      "ILLE": 4078,
      "ĠClifford": 4079,
      "Ġsmell": 4080,
      "Ġfollows": 4081,
      "Ġassur": 4082,
      "IPP": 4083,
      "Ġaffairs": 4084,
      "ĠDesdem": 4085,
      "Ġeasy": 4086,
      "Ġsolemn": 4087,
      "Ġprotest": 4088,
      "Ġfiend": 4089,
      "Ġpublic": 4090,
      "Ġleisure": 4091,
      "der": 4092,
      "eous": 4093,
      "vish": 4094,
      "rehe": 4095,
      "Ġbaw": 4096,
      "ising": 4097,
      "Ġfond": 4098,
      "ĠAJAX": 4099,
      "ĠBid": 4100,
      "Ġstol": 4101,
      "Ġdoom": 4102,
      "ONS": 4103,
      "Ġseven": 4104,
      "Ġlover": 4105,
      "Ġspring": 4106,
      "Ġenjoy": 4107,
      "URN": 4108,
      "Ġearn": 4109,
      "Ġcompan": 4110,
      "ĠStill": 4111,
      "Ġrepent": 4112,
      "ĠCHIE": 4113,
      "Ġsmo": 4114,
      "Ġreasons": 4115,
      "Ġundert": 4116,
      "ĠPercy": 4117,
      "Ġtrumpets": 4118,
      "Ġneighbour": 4119,
      "ĠTybalt": 4120,
      "Ġransom": 4121,
      "ĠCHIEF": 4122,
      "fer": 4123,
      "na": 4124,
      "uce": 4125,
      "ouds": 4126,
      "Ġbas": 4127,
      "Ġfood": 4128,
      "ĠTAM": 4129,
      "Ġport": 4130,
      "ĠBass": 4131,
      "ĠHang": 4132,
      "Ġev": 4133,
      "ĠPy": 4134,
      "ĠEgy": 4135,
      "Ġweight": 4136,
      "Ġstone": 4137,
      "Ġkins": 4138,
      "Ġfoe": 4139,
      "wards": 4140,
      "Ġadm": 4141,
      "ĠMARC": 4142,
      "Ġsilver": 4143,
      "Ġsilence": 4144,
      "Ġcounterfeit": 4145,
      "ĠAthens": 4146,
      "ĠPlease": 4147,
      "Ġcourtesy": 4148,
      "Ġabroad": 4149,
      "ĠEgypt": 4150,
      "';": 4151,
      "CU": 4152,
      "MAIN": 4153,
      "Th": 4154,
      "jax": 4155,
      "son": 4156,
      "Ġfain": 4157,
      "Ġfury": 4158,
      "Ġcure": 4159,
      "Ġcried": 4160,
      "ĠAjax": 4161,
      "Ġpaid": 4162,
      "ĠSen": 4163,
      "ĠSomet": 4164,
      "Ġmeant": 4165,
      "Ġweed": 4166,
      "Ġweigh": 4167,
      "ĠLYS": 4168,
      "ENCH": 4169,
      "ORA": 4170,
      "que": 4171,
      "LOT": 4172,
      "Ġquoth": 4173,
      "Ġheav": 4174,
      "Ġadieu": 4175,
      "Ġwitch": 4176,
      "ĠDUMAIN": 4177,
      "angu": 4178,
      "Ġconsider": 4179,
      "Ġassure": 4180,
      "ĠFRENCH": 4181,
      "Ġawake": 4182,
      "ĠLaer": 4183,
      "Ġhung": 4184,
      "Ġexecution": 4185,
      "Ġremembrance": 4186,
      "Ġforsworn": 4187,
      "ĠAttendants": 4188,
      "ĠHUBERT": 4189,
      "Ġvirgin": 4190,
      "ĠDesdemona": 4191,
      "ĠTAMORA": 4192,
      "ĠLYSANDER": 4193,
      "DELLO": 4194,
      "He": 4195,
      "OF": 4196,
      "VIR": 4197,
      "kin": 4198,
      "Ġtable": 4199,
      "Ġsqu": 4200,
      "Ġsau": 4201,
      "Ġbig": 4202,
      "Ġfle": 4203,
      "Ġdust": 4204,
      "Ġdign": 4205,
      "Ġniece": 4206,
      "Ġtop": 4207,
      "Ġtomb": 4208,
      "ĠHal": 4209,
      "ĠEL": 4210,
      "Ġdoing": 4211,
      "Ġdoors": 4212,
      "Ġspite": 4213,
      "ump": 4214,
      "Ġplot": 4215,
      "aked": 4216,
      "Ġhonor": 4217,
      "IBAN": 4218,
      "Ġfriar": 4219,
      "Ġabuse": 4220,
      "Ġtwice": 4221,
      "agger": 4222,
      "IONDELLO": 4223,
      "ĠARVIR": 4224,
      "ĠOnly": 4225,
      "AGUS": 4226,
      "Ġbroken": 4227,
      "Ġvict": 4228,
      "Ġcorrupt": 4229,
      "umberland": 4230,
      "Ġduc": 4231,
      "ĠCoriol": 4232,
      "Ġrank": 4233,
      "ointed": 4234,
      "Ġconquer": 4235,
      "ĠFLOR": 4236,
      "ĠTwo": 4237,
      "ĠARVIRAGUS": 4238,
      "FIDIUS": 4239,
      "dain": 4240,
      "uch": 4241,
      "yond": 4242,
      "Ġtune": 4243,
      "oun": 4244,
      "incess": 4245,
      "Ġwench": 4246,
      "Ġfee": 4247,
      "itude": 4248,
      "Ġline": 4249,
      "omach": 4250,
      "Ġgate": 4251,
      "ĠSIM": 4252,
      "ĠBIONDELLO": 4253,
      "ĠĠĠĠĠĠĠĠĠĠĠĠĠĠĠĠĠĠĠĠĠĠĠĠĠĠĠĠĠĠĠ": 4254,
      "ĠĠĠĠĠĠĠĠĠĠĠĠĠĠĠĠĠĠĠĠĠĠĠĠĠĠĠĠĠĠĠĠĠ": 4255,
      "Ġste": 4256,
      "Ġstart": 4257,
      "ĠGe": 4258,
      "INUS": 4259,
      "ARL": 4260,
      "Ġanger": 4261,
      "Ġsheep": 4262,
      "Ġrot": 4263,
      "OLOF": 4264,
      "ĠĠĠĠĠĠĠĠĠĠĠĠĠĠĠĠĠĠĠĠĠĠĠĠĠĠĠĠĠĠĠĠĠĠĠ": 4265,
      "IRAND": 4266,
      "URIO": 4267,
      "Ġwarm": 4268,
      "ATURN": 4269,
      "Ġbearing": 4270,
      "Ġbegg": 4271,
      "Ġguilt": 4272,
      "ĠRODER": 4273,
      "Ġtrial": 4274,
      "Ġcounten": 4275,
      "IGO": 4276,
      "Ġmiser": 4277,
      "Ġsupper": 4278,
      "Ġcaptain": 4279,
      "Ġsooner": 4280,
      "Ġskill": 4281,
      "Ġexpress": 4282,
      "Ġminister": 4283,
      "Ġwretch": 4284,
      "Ġprepar": 4285,
      "ĠAUFIDIUS": 4286,
      "Ġstudy": 4287,
      "Ġrascal": 4288,
      "Ġbreathe": 4289,
      "Ġcircum": 4290,
      "ERNES": 4291,
      "OLOFERNES": 4292,
      "IRANDA": 4293,
      "ĠRODERIGO": 4294,
      "FIC": 4295,
      "ZAL": 4296,
      "ience": 4297,
      "jo": 4298,
      "lo": 4299,
      "ys": 4300,
      "Ġtail": 4301,
      "Ġwhilst": 4302,
      "rers": 4303,
      "Ġband": 4304,
      "isho": 4305,
      "orious": 4306,
      "Ġcustom": 4307,
      "Ġled": 4308,
      "Ġlament": 4309,
      "Ġyonder": 4310,
      "ĠToo": 4311,
      "Ġhit": 4312,
      "Ġhorses": 4313,
      "ĠWest": 4314,
      "Ġbef": 4315,
      "ĠSHE": 4316,
      "Ġhap": 4317,
      "ĠHOLOFERNES": 4318,
      "ĠMIRANDA": 4319,
      "ĠOthe": 4320,
      "ĠGON": 4321,
      "Ġreign": 4322,
      "Ġones": 4323,
      "Ġasleep": 4324,
      "Ġseat": 4325,
      "Ġseason": 4326,
      "Ġvenge": 4327,
      "inds": 4328,
      "allow": 4329,
      "elve": 4330,
      "Ġrid": 4331,
      "ĠProt": 4332,
      "Ġwhereof": 4333,
      "Ġflood": 4334,
      "PHERD": 4335,
      "Ġslow": 4336,
      "Ġremedy": 4337,
      "Ġlawful": 4338,
      "Ġsometime": 4339,
      "Ġforgive": 4340,
      "Ġgallant": 4341,
      "Ġprofess": 4342,
      "Ġsubjects": 4343,
      "centio": 4344,
      "Ġprepare": 4345,
      "Ġempt": 4346,
      "Ġdreadful": 4347,
      "ĠBesides": 4348,
      "Ġschool": 4349,
      "ĠCALIBAN": 4350,
      "Ġfruit": 4351,
      "ATURNINUS": 4352,
      "ZALO": 4353,
      "ĠSHEPHERD": 4354,
      "ĠOthello": 4355,
      "ĠGONZALO": 4356,
      "--": 4357,
      "thi": 4358,
      "Ġwives": 4359,
      "Ġfun": 4360,
      "Ġfeet": 4361,
      "ĠOph": 4362,
      "Ġstomach": 4363,
      "ĠDem": 4364,
      "Ġloath": 4365,
      "rum": 4366,
      "ĠVol": 4367,
      "Ġunha": 4368,
      "Ġsack": 4369,
      "Ġwhence": 4370,
      "Ġalways": 4371,
      "Ġthinks": 4372,
      "ctions": 4373,
      "Ġruin": 4374,
      "Ġnatural": 4375,
      "ouchs": 4376,
      "Ġtempt": 4377,
      "Ġsingle": 4378,
      "ĠLeonato": 4379,
      "Ġcolours": 4380,
      "ĠScot": 4381,
      "Ġtowards": 4382,
      "oteus": 4383,
      "Ġmessenger": 4384,
      "Twas": 4385,
      "ĠHERMIA": 4386,
      "ĠSilvia": 4387,
      "Ġencounter": 4388,
      "Ġjewel": 4389,
      "ĠRosalind": 4390,
      "Ġpunish": 4391,
      "Ġmemory": 4392,
      "Ġparticular": 4393,
      "ĠMARCIUS": 4394,
      "BR": 4395,
      "TOM": 4396,
      "WIS": 4397,
      "ZO": 4398,
      "aces": 4399,
      "eg": 4400,
      "pen": 4401,
      "ping": 4402,
      "Ġable": 4403,
      "Ġmurther": 4404,
      "Ġwide": 4405,
      "Ġwont": 4406,
      "Ġborrow": 4407,
      "Ġburd": 4408,
      "Ġfart": 4409,
      "Ġfirm": 4410,
      "Ġdet": 4411,
      "Ġdif": 4412,
      "Ġdeter": 4413,
      "Ġcal": 4414,
      "Ġcitizens": 4415,
      "ĠTr": 4416,
      "Ġthrust": 4417,
      "ĠAENE": 4418,
      "ĠWEST": 4419,
      "ĠSave": 4420,
      "ĠSATURNINUS": 4421,
      "ĠBan": 4422,
      "ĠBOT": 4423,
      "Ġease": 4424,
      "ĠPri": 4425,
      "ĠLOR": 4426,
      "idius": 4427,
      "ters": 4428,
      "Ġstones": 4429,
      "ENZO": 4430,
      "Ġdece": 4431,
      "Ġallow": 4432,
      "ieur": 4433,
      "ĠOFFIC": 4434,
      "Ġunb": 4435,
      "Ġdisple": 4436,
      "ĠĠĠĠĠĠĠĠĠĠĠĠĠĠĠĠĠĠĠĠĠĠĠĠĠĠĠĠĠĠĠĠĠĠĠĠĠĠĠĠĠ": 4437,
      "ĠProteus": 4438,
      "Ġwarlike": 4439,
      "Ġclouds": 4440,
      "Ġaffect": 4441,
      "ector": 4442,
      "Ġcrowns": 4443,
      "Ġdiscourse": 4444,
      "LAVIUS": 4445,
      "Ġpossible": 4446,
      "Ġpowers": 4447,
      "ĠAENEAS": 4448,
      "ĠBOTTOM": 4449,
      "ĠLORENZO": 4450,
      "LUC": 4451,
      "iving": 4452,
      "ivil": 4453,
      "ked": 4454,
      "nal": 4455,
      "rat": 4456,
      "tom": 4457,
      "wixt": 4458,
      "Ġaud": 4459,
      "Ġbuck": 4460,
      "Ġfancy": 4461,
      "Ġcuck": 4462,
      "Ġyea": 4463,
      "enant": 4464,
      "Ġhol": 4465,
      "ĠWhilst": 4466,
      "ators": 4467,
      "ĠBear": 4468,
      "ĠCup": 4469,
      "ĠFLAVIUS": 4470,
      "ĠEither": 4471,
      "Ġstep": 4472,
      "Ġstorm": 4473,
      "ĠDon": 4474,
      "Ġreceiv": 4475,
      "ESEUS": 4476,
      "Ġshut": 4477,
      "Ġcomb": 4478,
      "ĠVI": 4479,
      "Ġhopes": 4480,
      "eeth": 4481,
      "Ġtwelve": 4482,
      "ĠTHESEUS": 4483,
      "ELAND": 4484,
      "Ġperil": 4485,
      "ĠDog": 4486,
      "Ġpurpos": 4487,
      "acher": 4488,
      "ĠShow": 4489,
      "ĠLEWIS": 4490,
      "IZEL": 4491,
      "Ġcondu": 4492,
      "Ġthrive": 4493,
      "ĠTrue": 4494,
      "ĠBelieve": 4495,
      "ĠTitus": 4496,
      "ĠCharles": 4497,
      "Ġslander": 4498,
      "Ġdearest": 4499,
      "ĠNorthumberland": 4500,
      "MORELAND": 4501,
      "ĠFLORIZEL": 4502,
      "Ġcountenance": 4503,
      "An": 4504,
      "Be": 4505,
      "St": 4506,
      "Ġteeth": 4507,
      "iny": 4508,
      "inius": 4509,
      "Ġmaint": 4510,
      "Ġnumb": 4511,
      "ĠTurn": 4512,
      "enet": 4513,
      "ences": 4514,
      "Ġpat": 4515,
      "Ġgard": 4516,
      "Ġgown": 4517,
      "Ġgrown": 4518,
      "ĠSet": 4519,
      "ĠCle": 4520,
      "ĠLie": 4521,
      "rib": 4522,
      "raid": 4523,
      "ords": 4524,
      "urg": 4525,
      "Ġangel": 4526,
      "Ġlovers": 4527,
      "cture": 4528,
      "Ġgoodness": 4529,
      "Ġwhether": 4530,
      "ĠMyself": 4531,
      "ĠVery": 4532,
      "Ġoutward": 4533,
      "Ġsac": 4534,
      "Ġflight": 4535,
      "ENET": 4536,
      "ĠMars": 4537,
      "ĠLords": 4538,
      "ĠAlack": 4539,
      "Ġservants": 4540,
      "Ġdaughters": 4541,
      "Ġguest": 4542,
      "Ġminds": 4543,
      "Ġtriumph": 4544,
      "ĠRomans": 4545,
      "Ġhappiness": 4546,
      "Ġgriefs": 4547,
      "Ġweeping": 4548,
      "Ġvoices": 4549,
      "Exeunt": 4550,
      "Ġextrem": 4551,
      "Ġgriev": 4552,
      "Ġabsence": 4553,
      "Ġunkind": 4554,
      "Ġquality": 4555,
      "ĠCastle": 4556,
      "Fl": 4557,
      "awn": 4558,
      "ault": 4559,
      "ib": 4560,
      "Ġ3": 4561,
      "Ġsal": 4562,
      "Ġmain": 4563,
      "Ġwings": 4564,
      "Ġcivil": 4565,
      "Ġlangu": 4566,
      "Ġnought": 4567,
      "Ġnumber": 4568,
      "Ġnaked": 4569,
      "ĠAlex": 4570,
      "omas": 4571,
      "ĠCress": 4572,
      "utenant": 4573,
      "ĠMan": 4574,
      "ĠMal": 4575,
      "ĠNone": 4576,
      "Ġloyal": 4577,
      "ĠThree": 4578,
      "ĠThomas": 4579,
      "iling": 4580,
      "ctly": 4581,
      "icy": 4582,
      "pping": 4583,
      "ĠĠĠĠĠĠĠĠĠĠĠĠĠĠĠĠĠĠĠĠĠĠĠĠĠĠĠĠĠĠĠĠĠĠĠĠ": 4584,
      "ĠĠĠĠĠĠĠĠĠĠĠĠĠĠĠĠĠĠĠĠĠĠĠĠĠĠĠĠĠĠĠĠĠĠĠĠĠĠĠĠ": 4585,
      "ĠĠĠĠĠĠĠĠĠĠĠĠĠĠĠĠĠĠĠĠĠĠĠĠĠĠĠĠĠĠĠĠĠĠĠĠĠ": 4586,
      "Ġeng": 4587,
      "Ġexam": 4588,
      "Ġfright": 4589,
      "ĠCAP": 4590,
      "ĠARCH": 4591,
      "Ġclo": 4592,
      "Ġheavenly": 4593,
      "ĠMarcus": 4594,
      "Ġwomb": 4595,
      "ETTA": 4596,
      "Ġchief": 4597,
      "Ġkindness": 4598,
      "Ġtreasure": 4599,
      "Ġseeming": 4600,
      "Ġaccus": 4601,
      "Ġaccount": 4602,
      "LAIN": 4603,
      "Ġburied": 4604,
      "Ġboot": 4605,
      "Ġpromis": 4606,
      "twixt": 4607,
      "ĠDeath": 4608,
      "Ġjoint": 4609,
      "ĠLAUNCELOT": 4610,
      "Ġreverend": 4611,
      "urious": 4612,
      "Ġbenef": 4613,
      "ĠWESTMORELAND": 4614,
      "ĠCupid": 4615,
      "?'": 4616,
      "?-": 4617,
      "iar": 4618,
      "iver": 4619,
      "vious": 4620,
      "Ġing": 4621,
      "ination": 4622,
      "Ġmaking": 4623,
      "Ġdig": 4624,
      "Ġcher": 4625,
      "Ġnine": 4626,
      "Ġpound": 4627,
      "Ġpack": 4628,
      "ĠWhi": 4629,
      "Ġbell": 4630,
      "ĠCHAM": 4631,
      "lend": 4632,
      "Ġmelt": 4633,
      "imer": 4634,
      "ĠLau": 4635,
      "ria": 4636,
      "rius": 4637,
      "Ġrealm": 4638,
      "ĠNature": 4639,
      "Ġfaces": 4640,
      "Ġknife": 4641,
      "Ġshrew": 4642,
      "Ġlovely": 4643,
      "Ġbride": 4644,
      "Ġhollow": 4645,
      "ĠĠĠĠĠĠĠĠĠĠĠĠĠĠĠĠĠĠĠĠĠĠĠĠĠĠĠĠĠĠĠĠĠĠĠĠĠĠĠĠĠĠĠĠĠĠĠ": 4646,
      "ĠĠĠĠĠĠĠĠĠĠĠĠĠĠĠĠĠĠĠĠĠĠĠĠĠĠĠĠĠĠĠĠĠĠĠĠĠĠĠĠĠĠĠĠĠĠĠĠĠĠĠĠĠĠĠĠĠ": 4647,
      "Ġprosper": 4648,
      "ired": 4649,
      "cian": 4650,
      "Ġdesperate": 4651,
      "Ġintent": 4652,
      "Ġclot": 4653,
      "Ġcover": 4654,
      "ĠStri": 4655,
      "ĠCaius": 4656,
      "Ġbegins": 4657,
      "BERLAIN": 4658,
      "ĠLUCETTA": 4659,
      "Ġtraitors": 4660,
      "Ġtrick": 4661,
      "Ġcharity": 4662,
      "Ġbids": 4663,
      "Ġhumbly": 4664,
      "Ġlands": 4665,
      "ĠBeatrice": 4666,
      "Ġdrops": 4667,
      "Ġconstant": 4668,
      "Ġacquaint": 4669,
      "Ġofficer": 4670,
      "Ġbawd": 4671,
      "Ġducats": 4672,
      "ishop": 4673,
      "ĠProtector": 4674,
      "ĠCressid": 4675,
      "ĠCHAMBERLAIN": 4676,
      "TIUS": 4677,
      "VER": 4678,
      "after": 4679,
      "cis": 4680,
      "pir": 4681,
      "Ġz": 4682,
      "Ġtid": 4683,
      "Ġtree": 4684,
      "heart": 4685,
      "Ġaim": 4686,
      "Ġmild": 4687,
      "Ġwre": 4688,
      "Ġwol": 4689,
      "Ġwaste": 4690,
      "Ġloose": 4691,
      "onius": 4692,
      "Ġthick": 4693,
      "ĠAg": 4694,
      "Ġpage": 4695,
      "Ġpress": 4696,
      "ĠSC": 4697,
      "ĠBra": 4698,
      "ĠBian": 4699,
      "ĠCy": 4700,
      "ĠHo": 4701,
      "ĠMil": 4702,
      "ĠPAT": 4703,
      "ĠAndronic": 4704,
      "ĠLong": 4705,
      "aside": 4706,
      "rible": 4707,
      "ĠGra": 4708,
      "ĠDIANA": 4709,
      "ĠRep": 4710,
      "Ġnobl": 4711,
      "ĠKn": 4712,
      "Ġvice": 4713,
      "Ġblush": 4714,
      "elt": 4715,
      "Ġprod": 4716,
      "Ġflies": 4717,
      "ertes": 4718,
      "ĠCAT": 4719,
      "Ġprevail": 4720,
      "oved": 4721,
      "Ġcompass": 4722,
      "ILIUS": 4723,
      "Ġguess": 4724,
      "Ġmeaning": 4725,
      "ontent": 4726,
      "Ġspoken": 4727,
      "Ġdenied": 4728,
      "Ġtemper": 4729,
      "Ġlearned": 4730,
      "Ġundone": 4731,
      "Ġcastle": 4732,
      "Ġprophe": 4733,
      "Ġmirth": 4734,
      "Ġdishonour": 4735,
      "ĠMontague": 4736,
      "ĠPHILIP": 4737,
      "ĠRich": 4738,
      "ouchsafe": 4739,
      "UD": 4740,
      "nat": 4741,
      "ront": 4742,
      "shi": 4743,
      "Ġet": 4744,
      "Ġmil": 4745,
      "Ġmiss": 4746,
      "Ġbark": 4747,
      "erves": 4748,
      "iter": 4749,
      "Ġdar": 4750,
      "Ġcries": 4751,
      "Ġhid": 4752,
      "ĠApp": 4753,
      "ĠAcc": 4754,
      "Ġpick": 4755,
      "Ġpainted": 4756,
      "Ġbecomes": 4757,
      "Ġinvent": 4758,
      "ĠBoy": 4759,
      "ĠCam": 4760,
      "ĠHumph": 4761,
      "ĠMight": 4762,
      "iment": 4763,
      "ĠFear": 4764,
      "ases": 4765,
      "Ġsol": 4766,
      "Ġknees": 4767,
      "Ġride": 4768,
      "Ġbrings": 4769,
      "Ġunl": 4770,
      "ption": 4771,
      "Ġenvy": 4772,
      "Ġgreatest": 4773,
      "ĠItal": 4774,
      "Ġroot": 4775,
      "Ġlean": 4776,
      "Ġplead": 4777,
      "ĠDoctor": 4778,
      "ĠShallow": 4779,
      "Ġmerit": 4780,
      "MERLE": 4781,
      "ĠROSS": 4782,
      "Ġcharm": 4783,
      "Ġobject": 4784,
      "Ġtreacher": 4785,
      "uteous": 4786,
      "Ġsickness": 4787,
      "Ġfreely": 4788,
      "Ġtyran": 4789,
      "Ġdisgu": 4790,
      "ĠHastings": 4791,
      "Ġcredit": 4792,
      "Ġauthority": 4793,
      "Ġgirl": 4794,
      "Ġearnest": 4795,
      "Ġtidings": 4796,
      "ĠBianca": 4797,
      "ald": 4798,
      "cle": 4799,
      "go": 4800,
      "hor": 4801,
      "ton": 4802,
      "ued": 4803,
      "ung": 4804,
      "Ġeter": 4805,
      "Ġton": 4806,
      "Ġapt": 4807,
      "ining": 4808,
      "Ġbought": 4809,
      "isbury": 4810,
      "ĠIm": 4811,
      "Ġfurn": 4812,
      "enc": 4813,
      "Ġhel": 4814,
      "ĠWIT": 4815,
      "Ġhabit": 4816,
      "utes": 4817,
      "edious": 4818,
      "ĠPUCK": 4819,
      "ades": 4820,
      "Ġstab": 4821,
      "ĠGlend": 4822,
      "ĠDen": 4823,
      "Ġsham": 4824,
      "Ġhers": 4825,
      "Ġvar": 4826,
      "Ġswore": 4827,
      "Ġsaying": 4828,
      "oder": 4829,
      "igo": 4830,
      "igence": 4831,
      "ĠĠĠĠĠĠĠĠĠĠĠĠĠĠĠĠĠĠĠĠĠĠĠĠĠĠĠĠĠĠĠĠĠĠĠĠĠĠĠ": 4832,
      "Ġquit": 4833,
      "Ġparty": 4834,
      "Ġperj": 4835,
      "Ġwhis": 4836,
      "Ġimper": 4837,
      "Ġdeadly": 4838,
      "Ġstreets": 4839,
      "Ġdisposition": 4840,
      "Ġcapt": 4841,
      "Ġcrack": 4842,
      "ĠWhither": 4843,
      "Ġdespair": 4844,
      "asket": 4845,
      "Ġforbear": 4846,
      "ĠAUMERLE": 4847,
      "Ġmodesty": 4848,
      "Ġregard": 4849,
      "Ġsighs": 4850,
      "Ġhorns": 4851,
      "Ġinnocent": 4852,
      "ĠVenice": 4853,
      "Ġthroat": 4854,
      "ĠBritain": 4855,
      "Ġmaintain": 4856,
      "ĠWhiles": 4857,
      "ĠHumphrey": 4858,
      "ĠWITCH": 4859,
      "Al": 4860,
      "CL": 4861,
      "PID": 4862,
      "vi": 4863,
      "zard": 4864,
      "Ġtort": 4865,
      "Ġtide": 4866,
      "Ġtedious": 4867,
      "Ġsalt": 4868,
      "ision": 4869,
      "Ġfish": 4870,
      "Ġnames": 4871,
      "Ġhill": 4872,
      "Ġhoney": 4873,
      "ĠAmen": 4874,
      "Ġgaz": 4875,
      "Ġghost": 4876,
      "ĠSUR": 4877,
      "etrius": 4878,
      "ĠBar": 4879,
      "ĠCons": 4880,
      "ĠOld": 4881,
      "ĠOct": 4882,
      "Ġeag": 4883,
      "Ġung": 4884,
      "Ġreck": 4885,
      "verse": 4886,
      "ESBY": 4887,
      "Ġlock": 4888,
      "Ġconvey": 4889,
      "Ġloved": 4890,
      "Ġblest": 4891,
      "Ġenforce": 4892,
      "Ġgentlewoman": 4893,
      "Ġcommission": 4894,
      "ĠMarch": 4895,
      "Ġappears": 4896,
      "Ġapprehe": 4897,
      "Ġprevent": 4898,
      "Ġcontempt": 4899,
      "Ġbrains": 4900,
      "Ġbelow": 4901,
      "Ġprick": 4902,
      "Ġbesides": 4903,
      "Ġvirtues": 4904,
      "Ġmischief": 4905,
      "ĠLONGAV": 4906,
      "Ġdivine": 4907,
      "Ġestate": 4908,
      "Ġesteem": 4909,
      "Ġdespite": 4910,
      "Ġoppos": 4911,
      "volio": 4912,
      "Ġdisgrace": 4913,
      "ESTOR": 4914,
      "ĠSalisbury": 4915,
      "ĠGeorge": 4916,
      "Ġempty": 4917,
      "ĠDemetrius": 4918,
      "Ġgarden": 4919,
      "ĠOctav": 4920,
      "ĠLONGAVILLE": 4921,
      "UE": 4922,
      "fl": 4923,
      "folk": 4924,
      "gle": 4925,
      "ws": 4926,
      "Ġ.": 4927,
      "Ġtaught": 4928,
      "ounce": 4929,
      "ina": 4930,
      "Ġwake": 4931,
      "haps": 4932,
      "Ġcup": 4933,
      "atio": 4934,
      "Ġincl": 4935,
      "ĠCLA": 4936,
      "ERISS": 4937,
      "ĠGent": 4938,
      "ĠDi": 4939,
      "ĠNESTOR": 4940,
      "ĠNERISS": 4941,
      "ams": 4942,
      "Ġant": 4943,
      "ement": 4944,
      "ody": 4945,
      "ĠĠĠĠĠĠĠĠĠĠĠĠĠĠĠĠĠĠĠĠĠĠĠĠĠĠĠĠĠĠĠĠĠĠĠĠĠĠĠĠĠĠĠĠĠĠĠĠ": 4946,
      "ĠTHURIO": 4947,
      "Ġrule": 4948,
      "Ġslaughter": 4949,
      "ĠNorfolk": 4950,
      "ethought": 4951,
      "Ġmov": 4952,
      "Ġwinds": 4953,
      "Ġwindow": 4954,
      "ĠGREY": 4955,
      "Ġattendants": 4956,
      "ĠArm": 4957,
      "Ġsometimes": 4958,
      "Ġcondemn": 4959,
      "ĠOLIVER": 4960,
      "Ġgarments": 4961,
      "ĠTruly": 4962,
      "Ġsuddenly": 4963,
      "Ġsatisfied": 4964,
      "Ġignorant": 4965,
      "Ġtempest": 4966,
      "Ġobedience": 4967,
      "ĠMortimer": 4968,
      "ONSO": 4969,
      "Ġsmooth": 4970,
      "Ġvengeance": 4971,
      "Ġburden": 4972,
      "Flourish": 4973,
      "ĠAndronicus": 4974,
      "ĠCATESBY": 4975,
      "UDIO": 4976,
      "ĠCLAUDIO": 4977,
      "ĠNERISSA": 4978,
      "app": 4979,
      "house": 4980,
      "ope": 4981,
      "oured": 4982,
      "Ġsits": 4983,
      "Ġpie": 4984,
      "ating": 4985,
      "ĠEach": 4986,
      "ĠEARL": 4987,
      "ĠLy": 4988,
      "tern": 4989,
      "Ġrenown": 4990,
      "INCH": 4991,
      "ĠYO": 4992,
      "ĠRoder": 4993,
      "Ġlod": 4994,
      "Ġspare": 4995,
      "Ġshallow": 4996,
      "antag": 4997,
      "Ġswell": 4998,
      "Ġtherein": 4999
    },
    "merges": [
      [
        "Ġ",
        "Ġ"
      ],
      [
        "Ġ",
        "t"
      ],
      [
        "h",
        "e"
      ],
      [
        "ĠĠ",
        "Ġ"
      ],
      [
        "Ġ",
        "a"
      ],
      [
        "ĠĠ",
        "ĠĠ"
      ],
      [
        "o",
        "u"
      ],
      [
        "Ġ",
        "s"
      ],
      [
        "i",
        "n"
      ],
      [
        "Ġ",
        "m"
      ],
      [
        "Ġ",
        "w"
      ],
      [
        "r",
        "e"
      ],
      [
        "h",
        "a"
      ],
      [
        "n",
        "d"
      ],
      [
        "Ġt",
        "he"
      ],
      [
        "Ġ",
        "b"
      ],
      [
        "i",
        "s"
      ],
      [
        "e",
        "r"
      ],
      [
        "o",
        "r"
      ],
      [
        "Ġ",
        "I"
      ],
      [
        "Ġ",
        "f"
      ],
      [
        "l",
        "l"
      ],
      [
        "Ġ",
        "o"
      ],
      [
        "i",
        "t"
      ],
      [
        "ĠĠĠĠ",
        "ĠĠĠĠ"
      ],
      [
        "Ġ",
        "d"
      ],
      [
        "Ġ",
        "c"
      ],
      [
        "e",
        "s"
      ],
      [
        "Ġ",
        "l"
      ],
      [
        "o",
        "n"
      ],
      [
        "Ġ",
        "y"
      ],
      [
        "Ġ",
        "n"
      ],
      [
        "Ġ",
        "T"
      ],
      [
        "Ġt",
        "h"
      ],
      [
        "e",
        "n"
      ],
      [
        "a",
        "r"
      ],
      [
        "Ġ",
        "h"
      ],
      [
        "Ġ",
        "A"
      ],
      [
        "Ġy",
        "ou"
      ],
      [
        "Ġ",
        "p"
      ],
      [
        "Ġt",
        "o"
      ],
      [
        "Ġa",
        "nd"
      ],
      [
        "ha",
        "t"
      ],
      [
        "Ġo",
        "f"
      ],
      [
        "Ġ",
        "he"
      ],
      [
        "o",
        "t"
      ],
      [
        "a",
        "n"
      ],
      [
        "v",
        "e"
      ],
      [
        "in",
        "g"
      ],
      [
        "o",
        "w"
      ],
      [
        "o",
        "m"
      ],
      [
        "Ġ",
        "g"
      ],
      [
        "s",
        "t"
      ],
      [
        "Ġ",
        "W"
      ],
      [
        "a",
        "t"
      ],
      [
        "Ġb",
        "e"
      ],
      [
        "Ġ",
        "in"
      ],
      [
        "s",
        "e"
      ],
      [
        "Ġ",
        "S"
      ],
      [
        "c",
        "e"
      ],
      [
        "Ġ",
        "ha"
      ],
      [
        "Ġm",
        "y"
      ],
      [
        "e",
        "t"
      ],
      [
        "Ġ",
        "B"
      ],
      [
        "Ġ",
        "C"
      ],
      [
        "l",
        "e"
      ],
      [
        "a",
        "y"
      ],
      [
        "l",
        "d"
      ],
      [
        "Ġ",
        "H"
      ],
      [
        "u",
        "t"
      ],
      [
        "Ġm",
        "e"
      ],
      [
        "Ġ",
        "M"
      ],
      [
        "it",
        "h"
      ],
      [
        "i",
        "r"
      ],
      [
        "i",
        "m"
      ],
      [
        "Ġ",
        "O"
      ],
      [
        "'",
        "d"
      ],
      [
        "c",
        "h"
      ],
      [
        "Ġn",
        "ot"
      ],
      [
        "e",
        "d"
      ],
      [
        "Ġ",
        "is"
      ],
      [
        "g",
        "h"
      ],
      [
        "'",
        "s"
      ],
      [
        "i",
        "ll"
      ],
      [
        "Ġt",
        "hat"
      ],
      [
        "Ġ",
        "e"
      ],
      [
        "Ġf",
        "or"
      ],
      [
        "o",
        "o"
      ],
      [
        "Ġ",
        "F"
      ],
      [
        "Ġ",
        "P"
      ],
      [
        "ĠĠĠĠĠĠĠĠ",
        "ĠĠĠĠĠĠĠĠ"
      ],
      [
        "k",
        "e"
      ],
      [
        "Ġ",
        "E"
      ],
      [
        "ou",
        "r"
      ],
      [
        "ĠA",
        "nd"
      ],
      [
        "Ġ",
        "u"
      ],
      [
        "Ġw",
        "ith"
      ],
      [
        "Ġw",
        "e"
      ],
      [
        "Ġ",
        "L"
      ],
      [
        "en",
        "t"
      ],
      [
        "Ġ",
        "it"
      ],
      [
        "a",
        "d"
      ],
      [
        "a",
        "s"
      ],
      [
        "Ġyou",
        "r"
      ],
      [
        "i",
        "d"
      ],
      [
        "ĠT",
        "he"
      ],
      [
        "a",
        "l"
      ],
      [
        "t",
        "er"
      ],
      [
        "he",
        "r"
      ],
      [
        "Ġh",
        "is"
      ],
      [
        "E",
        "R"
      ],
      [
        "Ġs",
        "t"
      ],
      [
        "r",
        "i"
      ],
      [
        "Ġ",
        "G"
      ],
      [
        "Ġth",
        "ou"
      ],
      [
        "r",
        "a"
      ],
      [
        "Ġ",
        "D"
      ],
      [
        "Ġh",
        "im"
      ],
      [
        "gh",
        "t"
      ],
      [
        "Ġth",
        "is"
      ],
      [
        "Ġ",
        "re"
      ],
      [
        "Ġha",
        "ve"
      ],
      [
        "om",
        "e"
      ],
      [
        "or",
        "d"
      ],
      [
        "l",
        "y"
      ],
      [
        "Ġs",
        "o"
      ],
      [
        "u",
        "r"
      ],
      [
        "Ġo",
        "n"
      ],
      [
        "Ġl",
        "i"
      ],
      [
        "Ġa",
        "s"
      ],
      [
        "Ġ",
        "k"
      ],
      [
        "U",
        "S"
      ],
      [
        "v",
        "er"
      ],
      [
        "E",
        "N"
      ],
      [
        "Ġ",
        "N"
      ],
      [
        "o",
        "re"
      ],
      [
        "ou",
        "ld"
      ],
      [
        "I",
        "N"
      ],
      [
        "Ġd",
        "e"
      ],
      [
        "a",
        "in"
      ],
      [
        "Ġd",
        "o"
      ],
      [
        "Ġw",
        "ill"
      ],
      [
        "r",
        "o"
      ],
      [
        "a",
        "m"
      ],
      [
        "oo",
        "d"
      ],
      [
        "u",
        "s"
      ],
      [
        "h",
        "i"
      ],
      [
        "c",
        "k"
      ],
      [
        "E",
        "S"
      ],
      [
        "Ġs",
        "ha"
      ],
      [
        "O",
        "N"
      ],
      [
        "Ġs",
        "e"
      ],
      [
        "i",
        "on"
      ],
      [
        "A",
        "R"
      ],
      [
        "es",
        "s"
      ],
      [
        "es",
        "t"
      ],
      [
        "Ġ",
        "Y"
      ],
      [
        "A",
        "N"
      ],
      [
        "e",
        "a"
      ],
      [
        "Ġhe",
        "r"
      ],
      [
        "Ġa",
        "n"
      ],
      [
        "Ġth",
        "y"
      ],
      [
        "Ġ",
        "'"
      ],
      [
        "Ġ",
        "R"
      ],
      [
        "Ġl",
        "o"
      ],
      [
        "Ġn",
        "o"
      ],
      [
        "Ġb",
        "ut"
      ],
      [
        "O",
        "R"
      ],
      [
        "n",
        "t"
      ],
      [
        "g",
        "e"
      ],
      [
        "Ġs",
        "u"
      ],
      [
        "a",
        "nd"
      ],
      [
        "Ġ",
        "K"
      ],
      [
        "Ġa",
        "ll"
      ],
      [
        "ĠT",
        "h"
      ],
      [
        "r",
        "u"
      ],
      [
        "i",
        "l"
      ],
      [
        "t",
        "h"
      ],
      [
        "a",
        "ke"
      ],
      [
        "i",
        "f"
      ],
      [
        "e",
        "ar"
      ],
      [
        "Ġs",
        "p"
      ],
      [
        "e",
        "ll"
      ],
      [
        "Ġf",
        "a"
      ],
      [
        "ĠT",
        "o"
      ],
      [
        "c",
        "t"
      ],
      [
        "Ġk",
        "n"
      ],
      [
        "Ġsha",
        "ll"
      ],
      [
        "Ġthe",
        "e"
      ],
      [
        "Ġ",
        "v"
      ],
      [
        "Ġa",
        "re"
      ],
      [
        "i",
        "ght"
      ],
      [
        "ha",
        "n"
      ],
      [
        "Ġs",
        "h"
      ],
      [
        "r",
        "om"
      ],
      [
        "ĠT",
        "hat"
      ],
      [
        "S",
        "T"
      ],
      [
        "a",
        "st"
      ],
      [
        "Ġb",
        "y"
      ],
      [
        "Ġ",
        "our"
      ],
      [
        "ar",
        "d"
      ],
      [
        "Ġm",
        "an"
      ],
      [
        "h",
        "o"
      ],
      [
        "Ġn",
        "e"
      ],
      [
        "ar",
        "t"
      ],
      [
        "Ġa",
        "t"
      ],
      [
        "e",
        "nd"
      ],
      [
        "in",
        "e"
      ],
      [
        "Ġa",
        "m"
      ],
      [
        "an",
        "t"
      ],
      [
        "ĠB",
        "ut"
      ],
      [
        "ou",
        "s"
      ],
      [
        "ĠH",
        "e"
      ],
      [
        "Ġu",
        "p"
      ],
      [
        "Ġc",
        "om"
      ],
      [
        "ĠW",
        "hat"
      ],
      [
        "Ġm",
        "u"
      ],
      [
        "L",
        "L"
      ],
      [
        "Ġl",
        "ord"
      ],
      [
        "ou",
        "t"
      ],
      [
        "se",
        "l"
      ],
      [
        "Ġg",
        "ood"
      ],
      [
        "Ġc",
        "on"
      ],
      [
        "'",
        "ll"
      ],
      [
        "q",
        "u"
      ],
      [
        "on",
        "e"
      ],
      [
        "i",
        "e"
      ],
      [
        "re",
        "s"
      ],
      [
        "Ġw",
        "he"
      ],
      [
        "u",
        "l"
      ],
      [
        "in",
        "d"
      ],
      [
        "Ġg",
        "o"
      ],
      [
        "i",
        "ve"
      ],
      [
        "hi",
        "ch"
      ],
      [
        "e",
        "m"
      ],
      [
        "Ġw",
        "hat"
      ],
      [
        "Ġf",
        "rom"
      ],
      [
        "on",
        "g"
      ],
      [
        "b",
        "le"
      ],
      [
        "r",
        "y"
      ],
      [
        "er",
        "s"
      ],
      [
        "v",
        "en"
      ],
      [
        "Ġkn",
        "ow"
      ],
      [
        "n",
        "ter"
      ],
      [
        "Ġthe",
        "m"
      ],
      [
        "Ġs",
        "he"
      ],
      [
        "Ġlo",
        "ve"
      ],
      [
        "r",
        "ow"
      ],
      [
        "Ġw",
        "ould"
      ],
      [
        "Ġs",
        "w"
      ],
      [
        "a",
        "u"
      ],
      [
        "Ġw",
        "as"
      ],
      [
        "I",
        "O"
      ],
      [
        "Ġb",
        "l"
      ],
      [
        "ot",
        "h"
      ],
      [
        "T",
        "H"
      ],
      [
        "Ġm",
        "ore"
      ],
      [
        "I",
        "C"
      ],
      [
        "i",
        "c"
      ],
      [
        "A",
        "L"
      ],
      [
        "Ġ",
        "["
      ],
      [
        "Ġp",
        "r"
      ],
      [
        "Ġc",
        "an"
      ],
      [
        "Ġthe",
        "re"
      ],
      [
        "at",
        "h"
      ],
      [
        "Ġ",
        "hat"
      ],
      [
        "ĠF",
        "or"
      ],
      [
        "p",
        "p"
      ],
      [
        "Ġn",
        "ow"
      ],
      [
        "ĠĠ",
        "ĠĠĠ"
      ],
      [
        "ĠE",
        "x"
      ],
      [
        "Ġthe",
        "ir"
      ],
      [
        "a",
        "ll"
      ],
      [
        "e",
        "p"
      ],
      [
        "o",
        "st"
      ],
      [
        "Ġ",
        "or"
      ],
      [
        "Ġthe",
        "y"
      ],
      [
        "f",
        "e"
      ],
      [
        "o",
        "l"
      ],
      [
        "Ġw",
        "or"
      ],
      [
        "Ġt",
        "han"
      ],
      [
        "U",
        "C"
      ],
      [
        "Ġa",
        "r"
      ],
      [
        "Ġs",
        "ir"
      ],
      [
        "sel",
        "f"
      ],
      [
        "u",
        "re"
      ],
      [
        "at",
        "e"
      ],
      [
        "Ġ",
        "if"
      ],
      [
        "Ġs",
        "ay"
      ],
      [
        "Ġu",
        "s"
      ],
      [
        "Ġl",
        "et"
      ],
      [
        "in",
        "k"
      ],
      [
        "IN",
        "G"
      ],
      [
        "u",
        "e"
      ],
      [
        "Ġhe",
        "re"
      ],
      [
        "is",
        "h"
      ],
      [
        "ĠW",
        "he"
      ],
      [
        "R",
        "O"
      ],
      [
        "Ġ",
        "J"
      ],
      [
        "L",
        "E"
      ],
      [
        "n",
        "g"
      ],
      [
        "I",
        "A"
      ],
      [
        "ĠM",
        "y"
      ],
      [
        "e",
        "l"
      ],
      [
        "ĠY",
        "ou"
      ],
      [
        "re",
        "at"
      ],
      [
        "Ġ",
        "r"
      ],
      [
        "ot",
        "her"
      ],
      [
        "h",
        "y"
      ],
      [
        "ĠA",
        "N"
      ],
      [
        "Ġwe",
        "ll"
      ],
      [
        "ĠI",
        "f"
      ],
      [
        "Ġhat",
        "h"
      ],
      [
        "u",
        "m"
      ],
      [
        "E",
        "D"
      ],
      [
        "O",
        "L"
      ],
      [
        "v",
        "es"
      ],
      [
        "a",
        "re"
      ],
      [
        "ĠC",
        "O"
      ],
      [
        "at",
        "her"
      ],
      [
        "f",
        "ore"
      ],
      [
        "oo",
        "k"
      ],
      [
        "o",
        "d"
      ],
      [
        "Ġp",
        "l"
      ],
      [
        "a",
        "k"
      ],
      [
        "Ġse",
        "e"
      ],
      [
        "am",
        "e"
      ],
      [
        "Ġthe",
        "n"
      ],
      [
        "I",
        "US"
      ],
      [
        "i",
        "g"
      ],
      [
        "Ġon",
        "e"
      ],
      [
        "or",
        "t"
      ],
      [
        "Ġb",
        "r"
      ],
      [
        "Ġ",
        "j"
      ],
      [
        "Ġli",
        "ke"
      ],
      [
        "Ġc",
        "ome"
      ],
      [
        "ou",
        "nd"
      ],
      [
        "Ġ",
        "V"
      ],
      [
        "Ġsh",
        "ould"
      ],
      [
        "Ġd",
        "id"
      ],
      [
        "ĠO",
        "F"
      ],
      [
        "Ġu",
        "n"
      ],
      [
        "Ġm",
        "ay"
      ],
      [
        "ĠA",
        "s"
      ],
      [
        "Ġm",
        "ad"
      ],
      [
        "an",
        "ce"
      ],
      [
        "Ġm",
        "ake"
      ],
      [
        "g",
        "ain"
      ],
      [
        "Ġd",
        "is"
      ],
      [
        "Ġh",
        "o"
      ],
      [
        "Ġ",
        "out"
      ],
      [
        "ĠĠĠĠĠĠĠĠĠĠĠĠĠĠĠĠ",
        "ĠĠĠĠĠĠĠĠĠĠĠĠĠĠĠĠ"
      ],
      [
        "ea",
        "k"
      ],
      [
        "Ġup",
        "on"
      ],
      [
        "id",
        "e"
      ],
      [
        "L",
        "O"
      ],
      [
        "i",
        "ce"
      ],
      [
        "Ġw",
        "hich"
      ],
      [
        "Ġs",
        "a"
      ],
      [
        "Ġmu",
        "st"
      ],
      [
        "Ġwe",
        "re"
      ],
      [
        "u",
        "n"
      ],
      [
        "ver",
        "y"
      ],
      [
        "U",
        "T"
      ],
      [
        "ĠE",
        "nter"
      ],
      [
        "ĠĠĠĠĠĠĠĠ",
        "ĠĠĠĠ"
      ],
      [
        "Ġha",
        "d"
      ],
      [
        "Ġt",
        "ru"
      ],
      [
        "ĠK",
        "ING"
      ],
      [
        "p",
        "e"
      ],
      [
        "Ġ",
        "qu"
      ],
      [
        "it",
        "y"
      ],
      [
        "Ġto",
        "o"
      ],
      [
        "im",
        "e"
      ],
      [
        "Ġp",
        "ro"
      ],
      [
        "ĠK",
        "ing"
      ],
      [
        "p",
        "t"
      ],
      [
        "I",
        "R"
      ],
      [
        "en",
        "ce"
      ],
      [
        "t",
        "her"
      ],
      [
        "Ġhe",
        "art"
      ],
      [
        "u",
        "nt"
      ],
      [
        "or",
        "n"
      ],
      [
        "Ġwhe",
        "n"
      ],
      [
        "Ġha",
        "nd"
      ],
      [
        "Ġsu",
        "ch"
      ],
      [
        "i",
        "es"
      ],
      [
        "ĠB",
        "e"
      ],
      [
        "Ġp",
        "o"
      ],
      [
        "Ġh",
        "on"
      ],
      [
        "Ġ",
        "en"
      ],
      [
        "ĠI",
        "n"
      ],
      [
        "Ġe",
        "x"
      ],
      [
        "I",
        "B"
      ],
      [
        "Ġa",
        "gain"
      ],
      [
        "ĠW",
        "hy"
      ],
      [
        "ĠH",
        "ow"
      ],
      [
        "ER",
        "S"
      ],
      [
        "Ġa",
        "l"
      ],
      [
        "ĠTh",
        "ou"
      ],
      [
        "I",
        "S"
      ],
      [
        "n",
        "ess"
      ],
      [
        "Ġsp",
        "eak"
      ],
      [
        "o",
        "nd"
      ],
      [
        "a",
        "ve"
      ],
      [
        "Ġe",
        "y"
      ],
      [
        "ĠW",
        "ith"
      ],
      [
        "ĠTh",
        "is"
      ],
      [
        "w",
        "n"
      ],
      [
        "f",
        "f"
      ],
      [
        "in",
        "ce"
      ],
      [
        "Ġy",
        "et"
      ],
      [
        "T",
        "R"
      ],
      [
        "ĠS",
        "o"
      ],
      [
        "is",
        "e"
      ],
      [
        "Ġof",
        "f"
      ],
      [
        "o",
        "se"
      ],
      [
        "as",
        "s"
      ],
      [
        "i",
        "ck"
      ],
      [
        "Ġs",
        "ome"
      ],
      [
        "i",
        "re"
      ],
      [
        "Ġw",
        "ho"
      ],
      [
        "is",
        "t"
      ],
      [
        "ĠN",
        "o"
      ],
      [
        "ad",
        "y"
      ],
      [
        "ĠW",
        "e"
      ],
      [
        "A",
        "C"
      ],
      [
        "Ġthe",
        "se"
      ],
      [
        "Ġf",
        "ri"
      ],
      [
        "Ġth",
        "ink"
      ],
      [
        "Ġf",
        "ather"
      ],
      [
        "c",
        "i"
      ],
      [
        "Ġf",
        "o"
      ],
      [
        "Ġm",
        "ine"
      ],
      [
        "AR",
        "D"
      ],
      [
        "e",
        "et"
      ],
      [
        "ur",
        "n"
      ],
      [
        "'",
        "t"
      ],
      [
        "a",
        "ck"
      ],
      [
        "Ġa",
        "b"
      ],
      [
        "o",
        "y"
      ],
      [
        "ing",
        "s"
      ],
      [
        "Ġg",
        "reat"
      ],
      [
        "ow",
        "n"
      ],
      [
        "Ġ",
        "Q"
      ],
      [
        "a",
        "ge"
      ],
      [
        "Ġh",
        "ow"
      ],
      [
        "e",
        "unt"
      ],
      [
        "Ġ",
        "U"
      ],
      [
        "ĠI",
        "t"
      ],
      [
        "ĠĠĠĠĠĠĠĠĠĠĠĠĠĠĠĠ",
        "ĠĠĠĠ"
      ],
      [
        "Ġhe",
        "a"
      ],
      [
        "Ġg",
        "ive"
      ],
      [
        "Ġt",
        "ime"
      ],
      [
        "Ġc",
        "ha"
      ],
      [
        "Ġt",
        "ake"
      ],
      [
        "ĠO",
        "f"
      ],
      [
        "Ġmu",
        "ch"
      ],
      [
        "ĠP",
        "r"
      ],
      [
        "Ġt",
        "w"
      ],
      [
        "Ġm",
        "ost"
      ],
      [
        "ĠThe",
        "re"
      ],
      [
        "w",
        "ay"
      ],
      [
        "ĠI",
        "s"
      ],
      [
        "Ġfri",
        "end"
      ],
      [
        "a",
        "g"
      ],
      [
        "ĠEx",
        "eunt"
      ],
      [
        "at",
        "ion"
      ],
      [
        "ast",
        "er"
      ],
      [
        "ent",
        "le"
      ],
      [
        "f",
        "ul"
      ],
      [
        "Ġt",
        "ell"
      ],
      [
        "ĠW",
        "ho"
      ],
      [
        "Ġm",
        "ar"
      ],
      [
        "Ġd",
        "ay"
      ],
      [
        "ĠC",
        "ome"
      ],
      [
        "ĠL",
        "et"
      ],
      [
        "Ġbe",
        "t"
      ],
      [
        "Ġwhe",
        "re"
      ],
      [
        "Ġb",
        "re"
      ],
      [
        "IN",
        "E"
      ],
      [
        "Ġ",
        "ro"
      ],
      [
        "ES",
        "S"
      ],
      [
        "I",
        "ST"
      ],
      [
        "Ġf",
        "l"
      ],
      [
        "re",
        "e"
      ],
      [
        "Ġg",
        "ra"
      ],
      [
        "A",
        "D"
      ],
      [
        "Ġhe",
        "ar"
      ],
      [
        "Ġl",
        "e"
      ],
      [
        "er",
        "t"
      ],
      [
        "o",
        "s"
      ],
      [
        "a",
        "p"
      ],
      [
        "Ġd",
        "es"
      ],
      [
        "Ġm",
        "en"
      ],
      [
        "ĠT",
        "H"
      ],
      [
        "Ġl",
        "ea"
      ],
      [
        "u",
        "st"
      ],
      [
        "Ġl",
        "ook"
      ],
      [
        "Ġw",
        "ord"
      ],
      [
        "Ġne",
        "ver"
      ],
      [
        "Ġar",
        "t"
      ],
      [
        "E",
        "C"
      ],
      [
        "Ġp",
        "art"
      ],
      [
        "ĠW",
        "hich"
      ],
      [
        "Ġbl",
        "ood"
      ],
      [
        "i",
        "o"
      ],
      [
        "ig",
        "n"
      ],
      [
        "u",
        "ll"
      ],
      [
        "Ġo",
        "ther"
      ],
      [
        "res",
        "s"
      ],
      [
        "I",
        "T"
      ],
      [
        "it",
        "her"
      ],
      [
        "ĠF",
        "OR"
      ],
      [
        "Ġde",
        "ath"
      ],
      [
        "U",
        "R"
      ],
      [
        "ĠWhe",
        "n"
      ],
      [
        "Ġli",
        "fe"
      ],
      [
        "l",
        "i"
      ],
      [
        "ou",
        "gh"
      ],
      [
        "Ġw",
        "r"
      ],
      [
        "oo",
        "l"
      ],
      [
        "ĠWhe",
        "re"
      ],
      [
        "Ġs",
        "on"
      ],
      [
        "ou",
        "nt"
      ],
      [
        "Ġe",
        "ar"
      ],
      [
        "Ġs",
        "er"
      ],
      [
        "ĠP",
        "RO"
      ],
      [
        "Ġg",
        "entle"
      ],
      [
        "Ġin",
        "t"
      ],
      [
        "a",
        "se"
      ],
      [
        "m",
        "ent"
      ],
      [
        "ĠEx",
        "it"
      ],
      [
        "ĠO",
        "R"
      ],
      [
        "i",
        "gh"
      ],
      [
        "Ġt",
        "r"
      ],
      [
        "ou",
        "l"
      ],
      [
        "ĠG",
        "od"
      ],
      [
        "Ġs",
        "c"
      ],
      [
        "Ġf",
        "ear"
      ],
      [
        "Ġfa",
        "ir"
      ],
      [
        "Ġ",
        "ri"
      ],
      [
        "ĠB",
        "y"
      ],
      [
        "E",
        "L"
      ],
      [
        "Ġd",
        "oth"
      ],
      [
        "ĠS",
        "ir"
      ],
      [
        "Ġp",
        "le"
      ],
      [
        "AN",
        "T"
      ],
      [
        "I",
        "ON"
      ],
      [
        "t",
        "le"
      ],
      [
        "E",
        "M"
      ],
      [
        "Ġan",
        "y"
      ],
      [
        "a",
        "ce"
      ],
      [
        "ĠC",
        "A"
      ],
      [
        "w",
        "ard"
      ],
      [
        "Ġcom",
        "m"
      ],
      [
        "Ġo",
        "wn"
      ],
      [
        "it",
        "e"
      ],
      [
        "Ġw",
        "ar"
      ],
      [
        "ĠN",
        "ow"
      ],
      [
        "Ġhon",
        "our"
      ],
      [
        "t",
        "is"
      ],
      [
        "ĠA",
        "R"
      ],
      [
        "F",
        "F"
      ],
      [
        "Ġc",
        "l"
      ],
      [
        "n",
        "ot"
      ],
      [
        "Ġa",
        "d"
      ],
      [
        "an",
        "s"
      ],
      [
        "c",
        "es"
      ],
      [
        "h",
        "ing"
      ],
      [
        "Ġp",
        "er"
      ],
      [
        "Ġsw",
        "eet"
      ],
      [
        "EN",
        "E"
      ],
      [
        "e",
        "ed"
      ],
      [
        "ĠO",
        "r"
      ],
      [
        "Ġ",
        "ra"
      ],
      [
        "Ġ",
        "very"
      ],
      [
        "AN",
        "D"
      ],
      [
        "Ġmad",
        "e"
      ],
      [
        "Ġtru",
        "e"
      ],
      [
        "E",
        "LL"
      ],
      [
        "Ġhea",
        "ven"
      ],
      [
        "e",
        "e"
      ],
      [
        "P",
        "H"
      ],
      [
        "Ġc",
        "all"
      ],
      [
        "I",
        "AN"
      ],
      [
        "ĠM",
        "ar"
      ],
      [
        "n",
        "ce"
      ],
      [
        "Ġn",
        "ight"
      ],
      [
        "u",
        "d"
      ],
      [
        "row",
        "n"
      ],
      [
        "l",
        "and"
      ],
      [
        "G",
        "E"
      ],
      [
        "T",
        "E"
      ],
      [
        "f",
        "t"
      ],
      [
        "Ġc",
        "o"
      ],
      [
        "ĠD",
        "o"
      ],
      [
        "Ġw",
        "h"
      ],
      [
        "Ġa",
        "pp"
      ],
      [
        "ĠL",
        "ord"
      ],
      [
        "O",
        "W"
      ],
      [
        "Ġcan",
        "not"
      ],
      [
        "Ġ",
        "ke"
      ],
      [
        "ll",
        "ow"
      ],
      [
        "Ġha",
        "st"
      ],
      [
        "ct",
        "ion"
      ],
      [
        "Ġa",
        "f"
      ],
      [
        "au",
        "gh"
      ],
      [
        "nd",
        "er"
      ],
      [
        "K",
        "E"
      ],
      [
        "Ġp",
        "re"
      ],
      [
        "a",
        "ble"
      ],
      [
        "Ġw",
        "it"
      ],
      [
        "Ġwor",
        "ld"
      ],
      [
        "IST",
        "R"
      ],
      [
        "A",
        "T"
      ],
      [
        "ou",
        "se"
      ],
      [
        "b",
        "er"
      ],
      [
        "Ġpr",
        "ay"
      ],
      [
        "ĠAN",
        "D"
      ],
      [
        "p",
        "er"
      ],
      [
        "ĠThe",
        "n"
      ],
      [
        "Ġey",
        "es"
      ],
      [
        "v",
        "ing"
      ],
      [
        "A",
        "B"
      ],
      [
        "Ġbe",
        "en"
      ],
      [
        "Ġst",
        "r"
      ],
      [
        "o",
        "ve"
      ],
      [
        "ĠHe",
        "re"
      ],
      [
        "C",
        "E"
      ],
      [
        "Ġa",
        "way"
      ],
      [
        "s",
        "w"
      ],
      [
        "Ġc",
        "our"
      ],
      [
        "l",
        "es"
      ],
      [
        "m",
        "an"
      ],
      [
        "Ġbr",
        "other"
      ],
      [
        "I",
        "D"
      ],
      [
        "c",
        "c"
      ],
      [
        "ĠA",
        "y"
      ],
      [
        "Ġ",
        "im"
      ],
      [
        "o",
        "ck"
      ],
      [
        "Ġbe",
        "ar"
      ],
      [
        "T",
        "ER"
      ],
      [
        "ĠY",
        "our"
      ],
      [
        "Ġcom",
        "p"
      ],
      [
        "Ġd",
        "own"
      ],
      [
        "or",
        "row"
      ],
      [
        "Ġd",
        "one"
      ],
      [
        "ĠS",
        "t"
      ],
      [
        "C",
        "ENE"
      ],
      [
        "Ġn",
        "ame"
      ],
      [
        "ĠB",
        "Y"
      ],
      [
        "ĠCO",
        "P"
      ],
      [
        "IB",
        "UT"
      ],
      [
        "ISTR",
        "IBUT"
      ],
      [
        "c",
        "he"
      ],
      [
        "Ġhe",
        "ad"
      ],
      [
        "re",
        "d"
      ],
      [
        "Ġ",
        "ru"
      ],
      [
        "Ġn",
        "or"
      ],
      [
        "H",
        "A"
      ],
      [
        "T",
        "is"
      ],
      [
        "Ġw",
        "om"
      ],
      [
        "Ġw",
        "ay"
      ],
      [
        "Ġst",
        "and"
      ],
      [
        "Ġl",
        "a"
      ],
      [
        "Ġtw",
        "o"
      ],
      [
        "if",
        "e"
      ],
      [
        "I",
        "M"
      ],
      [
        "ĠD",
        "U"
      ],
      [
        "ain",
        "t"
      ],
      [
        "Ġe",
        "ver"
      ],
      [
        "Ġo",
        "ld"
      ],
      [
        "Ġbe",
        "fore"
      ],
      [
        "OR",
        "D"
      ],
      [
        "Ġcon",
        "t"
      ],
      [
        "s",
        "s"
      ],
      [
        "ĠS",
        "ha"
      ],
      [
        "Ġm",
        "ight"
      ],
      [
        "E",
        "nter"
      ],
      [
        "ĠC",
        "a"
      ],
      [
        "IR",
        "ST"
      ],
      [
        "Ġp",
        "res"
      ],
      [
        "ĠF",
        "IRST"
      ],
      [
        "Ġl",
        "ady"
      ],
      [
        "Ġthou",
        "ght"
      ],
      [
        "Ġlea",
        "ve"
      ],
      [
        "I",
        "L"
      ],
      [
        "Ġf",
        "ool"
      ],
      [
        "Ġno",
        "ble"
      ],
      [
        "Ġne",
        "w"
      ],
      [
        "Ġar",
        "m"
      ],
      [
        "Ġs",
        "l"
      ],
      [
        "ĠI",
        "S"
      ],
      [
        "u",
        "ke"
      ],
      [
        "Ġth",
        "us"
      ],
      [
        "Ġ",
        "("
      ],
      [
        "UC",
        "H"
      ],
      [
        "k",
        "s"
      ],
      [
        "ĠĠĠĠĠĠĠĠĠĠĠĠĠĠĠĠ",
        "ĠĠĠĠĠĠĠĠ"
      ],
      [
        "ĠR",
        "e"
      ],
      [
        "Ġcom",
        "es"
      ],
      [
        "is",
        "s"
      ],
      [
        "Ġc",
        "ould"
      ],
      [
        "Ġbe",
        "g"
      ],
      [
        "Ġre",
        "m"
      ],
      [
        "Ġl",
        "ong"
      ],
      [
        "ĠW",
        "ell"
      ],
      [
        "EN",
        "T"
      ],
      [
        "e",
        "f"
      ],
      [
        "p",
        "s"
      ],
      [
        "as",
        "on"
      ],
      [
        "au",
        "se"
      ],
      [
        "O",
        "M"
      ],
      [
        "Ġbet",
        "ter"
      ],
      [
        "ĠA",
        "n"
      ],
      [
        "ĠG",
        "o"
      ],
      [
        "l",
        "ess"
      ],
      [
        "I",
        "LL"
      ],
      [
        "Ġp",
        "ur"
      ],
      [
        "at",
        "ch"
      ],
      [
        "ir",
        "st"
      ],
      [
        "ear",
        "s"
      ],
      [
        "Ġs",
        "oul"
      ],
      [
        "augh",
        "ter"
      ],
      [
        "Ġha",
        "r"
      ],
      [
        "ĠW",
        "ill"
      ],
      [
        "ĠQ",
        "U"
      ],
      [
        "Ġsh",
        "ow"
      ],
      [
        "a",
        "ch"
      ],
      [
        "p",
        "le"
      ],
      [
        "Ġh",
        "ouse"
      ],
      [
        "at",
        "ter"
      ],
      [
        "Ġpo",
        "or"
      ],
      [
        "Ġf",
        "ind"
      ],
      [
        "an",
        "g"
      ],
      [
        "ER",
        "V"
      ],
      [
        "Ġint",
        "o"
      ],
      [
        "w",
        "e"
      ],
      [
        "Ġde",
        "ad"
      ],
      [
        "ea",
        "ce"
      ],
      [
        "e",
        "w"
      ],
      [
        "or",
        "s"
      ],
      [
        "S",
        "S"
      ],
      [
        "ĠG",
        "ood"
      ],
      [
        "Ġb",
        "est"
      ],
      [
        "ĠA",
        "l"
      ],
      [
        "ĠD",
        "uke"
      ],
      [
        "Ġbe",
        "ing"
      ],
      [
        "i",
        "ous"
      ],
      [
        "i",
        "a"
      ],
      [
        "Ġnot",
        "hing"
      ],
      [
        "Ġke",
        "ep"
      ],
      [
        "Ġre",
        "p"
      ],
      [
        "ou",
        "ght"
      ],
      [
        "Ġm",
        "er"
      ],
      [
        "Ġk",
        "ing"
      ],
      [
        "ow",
        "er"
      ],
      [
        "Ġe",
        "nd"
      ],
      [
        "ĠC",
        "l"
      ],
      [
        "ĠS",
        "he"
      ],
      [
        "Ġman",
        "y"
      ],
      [
        "Ġ",
        "ent"
      ],
      [
        "ĠH",
        "is"
      ],
      [
        "ĠCO",
        "M"
      ],
      [
        "c",
        "ome"
      ],
      [
        "ĠDU",
        "KE"
      ],
      [
        "Ġb",
        "oth"
      ],
      [
        "ĠAN",
        "T"
      ],
      [
        "Ġser",
        "v"
      ],
      [
        "c",
        "y"
      ],
      [
        "t",
        "y"
      ],
      [
        "ĠC",
        "H"
      ],
      [
        "Ġli",
        "ve"
      ],
      [
        "i",
        "us"
      ],
      [
        "t",
        "un"
      ],
      [
        "nt",
        "o"
      ],
      [
        "Ġg",
        "l"
      ],
      [
        "ĠN",
        "ay"
      ],
      [
        "Ġb",
        "ra"
      ],
      [
        "ĠT",
        "han"
      ],
      [
        "Ġe",
        "very"
      ],
      [
        "ĠThe",
        "y"
      ],
      [
        "ak",
        "es"
      ],
      [
        "M",
        "ER"
      ],
      [
        "ĠN",
        "or"
      ],
      [
        "Ġf",
        "ell"
      ],
      [
        "Ġmy",
        "self"
      ],
      [
        "ĠM",
        "AC"
      ],
      [
        "Ġp",
        "ut"
      ],
      [
        "d",
        "s"
      ],
      [
        "i",
        "ed"
      ],
      [
        "Ġm",
        "aster"
      ],
      [
        "r",
        "ance"
      ],
      [
        "ĠO",
        "TH"
      ],
      [
        "Ġst",
        "ill"
      ],
      [
        "ON",
        "D"
      ],
      [
        "Ġfriend",
        "s"
      ],
      [
        "l",
        "f"
      ],
      [
        "i",
        "an"
      ],
      [
        "Ġin",
        "d"
      ],
      [
        "et",
        "h"
      ],
      [
        "u",
        "ck"
      ],
      [
        "Y",
        "R"
      ],
      [
        "i",
        "er"
      ],
      [
        "Ġs",
        "m"
      ],
      [
        "ĠE",
        "ng"
      ],
      [
        "Ġw",
        "ife"
      ],
      [
        "in",
        "s"
      ],
      [
        "hi",
        "p"
      ],
      [
        "ĠN",
        "ot"
      ],
      [
        "B",
        "ER"
      ],
      [
        "it",
        "tle"
      ],
      [
        "o",
        "ld"
      ],
      [
        "Ġfo",
        "llow"
      ],
      [
        "Ġt",
        "ong"
      ],
      [
        "ĠM",
        "AR"
      ],
      [
        "P",
        "E"
      ],
      [
        "m",
        "e"
      ],
      [
        "m",
        "p"
      ],
      [
        "v",
        "il"
      ],
      [
        "Ġs",
        "et"
      ],
      [
        "Ġli",
        "e"
      ],
      [
        "ES",
        "TER"
      ],
      [
        "re",
        "n"
      ],
      [
        "Ġd",
        "aughter"
      ],
      [
        "OR",
        "K"
      ],
      [
        "Ġn",
        "at"
      ],
      [
        "ĠPr",
        "ince"
      ],
      [
        "r",
        "ant"
      ],
      [
        "Ġl",
        "ittle"
      ],
      [
        "I",
        "ES"
      ],
      [
        "ĠH",
        "am"
      ],
      [
        "ĠT",
        "IM"
      ],
      [
        "ra",
        "ce"
      ],
      [
        "ĠANT",
        "ON"
      ],
      [
        "ĠL",
        "UC"
      ],
      [
        "ĠSha",
        "ll"
      ],
      [
        "ĠE",
        "d"
      ],
      [
        "ĠR",
        "ome"
      ],
      [
        "Ġho",
        "ld"
      ],
      [
        "i",
        "le"
      ],
      [
        "Ġf",
        "irst"
      ],
      [
        "ĠO",
        "n"
      ],
      [
        "Ġth",
        "ose"
      ],
      [
        "Ġh",
        "our"
      ],
      [
        "Ġde",
        "ar"
      ],
      [
        "EC",
        "OND"
      ],
      [
        "m",
        "en"
      ],
      [
        "es",
        "ar"
      ],
      [
        "c",
        "l"
      ],
      [
        "Ġs",
        "le"
      ],
      [
        "w",
        "ell"
      ],
      [
        "Ġyou",
        "ng"
      ],
      [
        "Ġcon",
        "f"
      ],
      [
        "E",
        "T"
      ],
      [
        "Ġlord",
        "s"
      ],
      [
        "ĠL",
        "ORD"
      ],
      [
        "Ġagain",
        "st"
      ],
      [
        "N",
        "C"
      ],
      [
        "a",
        "c"
      ],
      [
        "Ġd",
        "ie"
      ],
      [
        "Ġcon",
        "s"
      ],
      [
        "ut",
        "h"
      ],
      [
        "ie",
        "ld"
      ],
      [
        "in",
        "t"
      ],
      [
        "ĠB",
        "r"
      ],
      [
        "Ġan",
        "sw"
      ],
      [
        ".",
        "'"
      ],
      [
        "Ġg",
        "u"
      ],
      [
        "Ġg",
        "one"
      ],
      [
        "ĠS",
        "ECOND"
      ],
      [
        "L",
        "Y"
      ],
      [
        "it",
        "s"
      ],
      [
        "ar",
        "k"
      ],
      [
        "ĠH",
        "ave"
      ],
      [
        "on",
        "s"
      ],
      [
        "Ġm",
        "a"
      ],
      [
        "Ġc",
        "hi"
      ],
      [
        "US",
        "E"
      ],
      [
        "al",
        "k"
      ],
      [
        "ON",
        "IC"
      ],
      [
        "b",
        "l"
      ],
      [
        "ĠH",
        "er"
      ],
      [
        "Ġt",
        "ra"
      ],
      [
        "Ġhim",
        "self"
      ],
      [
        "Ġre",
        "st"
      ],
      [
        "Ġey",
        "e"
      ],
      [
        "9",
        "9"
      ],
      [
        "re",
        "t"
      ],
      [
        "Ġe",
        "l"
      ],
      [
        "ĠE",
        "LE"
      ],
      [
        "il",
        "t"
      ],
      [
        "UC",
        "ESTER"
      ],
      [
        "LO",
        "UCESTER"
      ],
      [
        "ĠCa",
        "esar"
      ],
      [
        "f",
        "or"
      ],
      [
        "l",
        "t"
      ],
      [
        "Ġth",
        "ine"
      ],
      [
        "ĠA",
        "t"
      ],
      [
        "Ġpl",
        "ace"
      ],
      [
        "1",
        "99"
      ],
      [
        "C",
        "TR"
      ],
      [
        "Ġm",
        "ind"
      ],
      [
        "ĠI",
        "NC"
      ],
      [
        "ĠD",
        "ISTRIBUT"
      ],
      [
        "ĠAR",
        "E"
      ],
      [
        "ĠCOP",
        "IES"
      ],
      [
        "MER",
        "C"
      ],
      [
        "ĠELE",
        "CTR"
      ],
      [
        "ĠELECTR",
        "ONIC"
      ],
      [
        "ĠG",
        "LOUCESTER"
      ],
      [
        "in",
        "ess"
      ],
      [
        "E",
        "EN"
      ],
      [
        "ĠR",
        "O"
      ],
      [
        "Ġc",
        "h"
      ],
      [
        "Ġat",
        "t"
      ],
      [
        "Ġcour",
        "t"
      ],
      [
        "i",
        "v"
      ],
      [
        "Ġb",
        "oy"
      ],
      [
        "Ġfa",
        "ll"
      ],
      [
        "Ġwor",
        "th"
      ],
      [
        "Ġwom",
        "an"
      ],
      [
        "Ġpl",
        "ay"
      ],
      [
        "A",
        "G"
      ],
      [
        "Ġp",
        "ass"
      ],
      [
        "Ġfa",
        "ce"
      ],
      [
        "ou",
        "d"
      ],
      [
        "en",
        "s"
      ],
      [
        "est",
        "y"
      ],
      [
        "ĠY",
        "et"
      ],
      [
        "Ġst",
        "ay"
      ],
      [
        "Ġsw",
        "ord"
      ],
      [
        "L",
        "I"
      ],
      [
        "ist",
        "ress"
      ],
      [
        "Ġk",
        "ind"
      ],
      [
        "Ġt",
        "ill"
      ],
      [
        "Ġt",
        "ri"
      ],
      [
        "Ġm",
        "other"
      ],
      [
        "ha",
        "r"
      ],
      [
        "le",
        "d"
      ],
      [
        "g",
        "et"
      ],
      [
        "Ġn",
        "one"
      ],
      [
        "Ġg",
        "ri"
      ],
      [
        "ĠQU",
        "EEN"
      ],
      [
        "Ġtong",
        "ue"
      ],
      [
        "ut",
        "y"
      ],
      [
        "ĠTh",
        "y"
      ],
      [
        "ĠP",
        "A"
      ],
      [
        "ĠA",
        "ll"
      ],
      [
        "Ġp",
        "eace"
      ],
      [
        "Ġword",
        "s"
      ],
      [
        "Ġaf",
        "ter"
      ],
      [
        "Ġansw",
        "er"
      ],
      [
        "C",
        "H"
      ],
      [
        "U",
        "N"
      ],
      [
        "Ġcha",
        "r"
      ],
      [
        "is",
        "on"
      ],
      [
        "Ġf",
        "ull"
      ],
      [
        "ow",
        "s"
      ],
      [
        "Ġg",
        "i"
      ],
      [
        "ir",
        "t"
      ],
      [
        "Ġpres",
        "ent"
      ],
      [
        "e",
        "ct"
      ],
      [
        "Ġc",
        "ur"
      ],
      [
        "ĠF",
        "rance"
      ],
      [
        "Ġt",
        "urn"
      ],
      [
        "Ġo",
        "b"
      ],
      [
        "Ġp",
        "e"
      ],
      [
        "Ġre",
        "s"
      ],
      [
        "S",
        "CENE"
      ],
      [
        "Ġh",
        "us"
      ],
      [
        "Ġel",
        "se"
      ],
      [
        "a",
        "b"
      ],
      [
        "ĠA",
        "nt"
      ],
      [
        "Ġfor",
        "tun"
      ],
      [
        "Ġbr",
        "ing"
      ],
      [
        "Ġu",
        "nder"
      ],
      [
        "Ġthou",
        "gh"
      ],
      [
        "Ġim",
        "p"
      ],
      [
        "Ġc",
        "he"
      ],
      [
        "OW",
        "N"
      ],
      [
        "R",
        "Y"
      ],
      [
        "O",
        "T"
      ],
      [
        "Ġd",
        "ra"
      ],
      [
        "Ġfor",
        "th"
      ],
      [
        "Ġri",
        "ght"
      ],
      [
        "A",
        "M"
      ],
      [
        "ĠO",
        "ur"
      ],
      [
        "Ġne",
        "ed"
      ],
      [
        "it",
        "ion"
      ],
      [
        "s",
        "and"
      ],
      [
        "Ġb",
        "ack"
      ],
      [
        "ul",
        "t"
      ],
      [
        "ĠJ",
        "o"
      ],
      [
        "Ġc",
        "ount"
      ],
      [
        "ĠC",
        "LO"
      ],
      [
        "IC",
        "K"
      ],
      [
        "Ġt",
        "re"
      ],
      [
        "Ġbe",
        "l"
      ],
      [
        "Ġsp",
        "ir"
      ],
      [
        "EN",
        "RY"
      ],
      [
        "ĠH",
        "ENRY"
      ],
      [
        "Ġse",
        "em"
      ],
      [
        "Ġme",
        "an"
      ],
      [
        "Ġwho",
        "se"
      ],
      [
        "ĠQ",
        "ue"
      ],
      [
        "a",
        "le"
      ],
      [
        "Ġm",
        "atter"
      ],
      [
        "Ġc",
        "rown"
      ],
      [
        "Ġme",
        "et"
      ],
      [
        "A",
        "FF"
      ],
      [
        "b",
        "and"
      ],
      [
        "Ġa",
        "cc"
      ],
      [
        "Ġp",
        "ri"
      ],
      [
        "Ġsa",
        "id"
      ],
      [
        "ĠQue",
        "en"
      ],
      [
        "U",
        "M"
      ],
      [
        "IC",
        "H"
      ],
      [
        "O",
        "ST"
      ],
      [
        "Ġc",
        "han"
      ],
      [
        "as",
        "ure"
      ],
      [
        "Ġon",
        "ce"
      ],
      [
        "Ġwr",
        "ong"
      ],
      [
        "Ġsu",
        "b"
      ],
      [
        "A",
        "ST"
      ],
      [
        "ĠR",
        "ICH"
      ],
      [
        "Ġv",
        "ill"
      ],
      [
        "ee",
        "ch"
      ],
      [
        "ĠB",
        "R"
      ],
      [
        "Ġan",
        "other"
      ],
      [
        "Ġchi",
        "ld"
      ],
      [
        "Ġre",
        "ason"
      ],
      [
        "Ġlet",
        "ter"
      ],
      [
        "Ġb",
        "id"
      ],
      [
        "I",
        "G"
      ],
      [
        "Ġfa",
        "ith"
      ],
      [
        "Ġh",
        "um"
      ],
      [
        "ĠU",
        "p"
      ],
      [
        "Ġhus",
        "band"
      ],
      [
        "Ġp",
        "ra"
      ],
      [
        "Ġre",
        "t"
      ],
      [
        "O",
        "P"
      ],
      [
        "a",
        "il"
      ],
      [
        "i",
        "x"
      ],
      [
        "l",
        "p"
      ],
      [
        "s",
        "ide"
      ],
      [
        "Ġthere",
        "fore"
      ],
      [
        "hi",
        "le"
      ],
      [
        "Ġho",
        "pe"
      ],
      [
        "ĠCH",
        "AR"
      ],
      [
        "h",
        "n"
      ],
      [
        "Ġso",
        "ld"
      ],
      [
        "or",
        "se"
      ],
      [
        "Ġu",
        "nto"
      ],
      [
        "ri",
        "ed"
      ],
      [
        "Ġth",
        "ing"
      ],
      [
        "ST",
        "AFF"
      ],
      [
        "AL",
        "STAFF"
      ],
      [
        "Ġear",
        "th"
      ],
      [
        "Ġo",
        "ver"
      ],
      [
        "Ġc",
        "ou"
      ],
      [
        "on",
        "t"
      ],
      [
        "Ġth",
        "ree"
      ],
      [
        "ĠF",
        "ALSTAFF"
      ],
      [
        "Ġind",
        "eed"
      ],
      [
        "Ġd",
        "re"
      ],
      [
        "Ġb",
        "es"
      ],
      [
        "Ġf",
        "al"
      ],
      [
        "Ġth",
        "r"
      ],
      [
        "Ġab",
        "out"
      ],
      [
        "Ġm",
        "o"
      ],
      [
        "Ġas",
        "s"
      ],
      [
        "Ġk",
        "ill"
      ],
      [
        "Ġh",
        "ome"
      ],
      [
        "Ġb",
        "od"
      ],
      [
        "Ġple",
        "ase"
      ],
      [
        "A",
        "Y"
      ],
      [
        "or",
        "y"
      ],
      [
        "O",
        "B"
      ],
      [
        "at",
        "i"
      ],
      [
        "ĠF",
        "rom"
      ],
      [
        "a",
        "ir"
      ],
      [
        "sel",
        "ves"
      ],
      [
        "ĠJo",
        "hn"
      ],
      [
        "Ġli",
        "ght"
      ],
      [
        "Ġst",
        "re"
      ],
      [
        "is",
        "ter"
      ],
      [
        "ar",
        "y"
      ],
      [
        "et",
        "s"
      ],
      [
        "Ġd",
        "ou"
      ],
      [
        "Ġthou",
        "sand"
      ],
      [
        "e",
        "el"
      ],
      [
        "Ġm",
        "on"
      ],
      [
        "Ġhe",
        "nce"
      ],
      [
        "Ġe",
        "ven"
      ],
      [
        "Ġha",
        "s"
      ],
      [
        "Ġtr",
        "uth"
      ],
      [
        "Ġ",
        "\""
      ],
      [
        "I",
        "P"
      ],
      [
        "R",
        "IN"
      ],
      [
        "ĠĠĠĠĠĠĠĠ",
        "ĠĠ"
      ],
      [
        "en",
        "e"
      ],
      [
        "Ġhe",
        "ard"
      ],
      [
        "Ġhand",
        "s"
      ],
      [
        "Ġsle",
        "ep"
      ],
      [
        "ĠRICH",
        "ARD"
      ],
      [
        "IC",
        "E"
      ],
      [
        "ELL",
        "O"
      ],
      [
        "Ġc",
        "ause"
      ],
      [
        "A",
        "side"
      ],
      [
        "ĠS",
        "ERV"
      ],
      [
        "Ġdo",
        "st"
      ],
      [
        "Ġdis",
        "c"
      ],
      [
        "L",
        "A"
      ],
      [
        "p",
        "h"
      ],
      [
        "Ġwh",
        "om"
      ],
      [
        "b",
        "t"
      ],
      [
        "ĠĠĠĠ",
        "ĠĠĠĠĠ"
      ],
      [
        "ĠM",
        "aster"
      ],
      [
        "Ġnat",
        "ure"
      ],
      [
        "Ġu",
        "se"
      ],
      [
        "ert",
        "ain"
      ],
      [
        "Ġfal",
        "se"
      ],
      [
        "on",
        "y"
      ],
      [
        "fe",
        "ct"
      ],
      [
        "Ġj",
        "ust"
      ],
      [
        "Ġmad",
        "am"
      ],
      [
        "ĠUp",
        "on"
      ],
      [
        "v",
        "y"
      ],
      [
        "ĠR",
        "om"
      ],
      [
        "Ġv",
        "irt"
      ],
      [
        "ĠG",
        "ive"
      ],
      [
        "ard",
        "on"
      ],
      [
        "Ġbe",
        "d"
      ],
      [
        "ĠS",
        "p"
      ],
      [
        "ĠG",
        "race"
      ],
      [
        "Ġsu",
        "re"
      ],
      [
        "Ġthan",
        "k"
      ],
      [
        "ER",
        "M"
      ],
      [
        "Ġvill",
        "ain"
      ],
      [
        "E",
        "TH"
      ],
      [
        "Ġ",
        "i"
      ],
      [
        "om",
        "et"
      ],
      [
        "Ġc",
        "ar"
      ],
      [
        "ĠA",
        "re"
      ],
      [
        "im",
        "es"
      ],
      [
        "ĠĠĠĠĠĠĠĠĠĠĠĠ",
        "ĠĠĠ"
      ],
      [
        "pe",
        "ct"
      ],
      [
        "ant",
        "s"
      ],
      [
        "Ġp",
        "ower"
      ],
      [
        "Ġwith",
        "in"
      ],
      [
        "m",
        "b"
      ],
      [
        "ci",
        "ous"
      ],
      [
        "e",
        "al"
      ],
      [
        "m",
        "s"
      ],
      [
        "ĠĠĠĠĠĠĠĠĠĠĠĠ",
        "ĠĠ"
      ],
      [
        "Ġs",
        "ent"
      ],
      [
        "ĠS",
        "u"
      ],
      [
        "Ġst",
        "ate"
      ],
      [
        "ĠG",
        "l"
      ],
      [
        "Ġv",
        "al"
      ],
      [
        "ĠEng",
        "land"
      ],
      [
        "ĠI",
        "I"
      ],
      [
        "ĠĠĠĠĠĠĠĠ",
        "ĠĠĠ"
      ],
      [
        "Ġgo",
        "ld"
      ],
      [
        "Ġla",
        "w"
      ],
      [
        "ur",
        "y"
      ],
      [
        "Ġm",
        "is"
      ],
      [
        "Ġm",
        "akes"
      ],
      [
        "Ġw",
        "ind"
      ],
      [
        "Ġyou",
        "th"
      ],
      [
        "Ġsha",
        "me"
      ],
      [
        "IA",
        "M"
      ],
      [
        "Ġbre",
        "ak"
      ],
      [
        "Ġnew",
        "s"
      ],
      [
        "ĠW",
        "ILL"
      ],
      [
        "che",
        "s"
      ],
      [
        "Ġb",
        "us"
      ],
      [
        "Ġth",
        "ings"
      ],
      [
        "Ġh",
        "ither"
      ],
      [
        "ve",
        "re"
      ],
      [
        "r",
        "ing"
      ],
      [
        "n",
        "ing"
      ],
      [
        "Ġb",
        "u"
      ],
      [
        "an",
        "y"
      ],
      [
        "UT",
        "US"
      ],
      [
        "Ġf",
        "ar"
      ],
      [
        "ĠG",
        "R"
      ],
      [
        "Ġf",
        "ight"
      ],
      [
        "Ġbe",
        "a"
      ],
      [
        "ut",
        "e"
      ],
      [
        "Ġe",
        "re"
      ],
      [
        "Ġfell",
        "ow"
      ],
      [
        "ĠBR",
        "UTUS"
      ],
      [
        "Ġwe",
        "l"
      ],
      [
        "ĠB",
        "ER"
      ],
      [
        "au",
        "d"
      ],
      [
        "ĠPA",
        "GE"
      ],
      [
        "Ġc",
        "ame"
      ],
      [
        "an",
        "ge"
      ],
      [
        "Ġha",
        "pp"
      ],
      [
        "ĠL",
        "A"
      ],
      [
        "Ġgentle",
        "man"
      ],
      [
        "ce",
        "ive"
      ],
      [
        "AN",
        "IO"
      ],
      [
        "d",
        "ay"
      ],
      [
        "ĠĠĠĠĠĠĠĠ",
        "ĠĠĠĠĠ"
      ],
      [
        "ĠANTON",
        "Y"
      ],
      [
        "Ġma",
        "id"
      ],
      [
        "ĠWILL",
        "IAM"
      ],
      [
        "L",
        "U"
      ],
      [
        "W",
        "N"
      ],
      [
        "f",
        "ort"
      ],
      [
        "u",
        "se"
      ],
      [
        "ou",
        "ch"
      ],
      [
        "Ġg",
        "r"
      ],
      [
        "ĠW",
        "ould"
      ],
      [
        "ĠCLO",
        "WN"
      ],
      [
        "E",
        "TR"
      ],
      [
        "S",
        "AL"
      ],
      [
        "ĠP",
        "RIN"
      ],
      [
        "ĠGl",
        "ou"
      ],
      [
        "O",
        "UR"
      ],
      [
        "y",
        "al"
      ],
      [
        "Ġ",
        "ill"
      ],
      [
        "Ġs",
        "ince"
      ],
      [
        "Ġb",
        "an"
      ],
      [
        "ie",
        "ve"
      ],
      [
        "Ġen",
        "ough"
      ],
      [
        "ĠH",
        "ath"
      ],
      [
        "ĠD",
        "id"
      ],
      [
        "Ġad",
        "v"
      ],
      [
        "Ġhe",
        "lp"
      ],
      [
        "Ġr",
        "ather"
      ],
      [
        "EC",
        "T"
      ],
      [
        "ĠRO",
        "SAL"
      ],
      [
        "ad",
        "e"
      ],
      [
        "Ġsha",
        "lt"
      ],
      [
        "Ġgra",
        "ce"
      ],
      [
        "d",
        "d"
      ],
      [
        "ĠSERV",
        "ANT"
      ],
      [
        "i",
        "ld"
      ],
      [
        "ĠĠĠĠ",
        "ĠĠĠ"
      ],
      [
        "Ġdo",
        "es"
      ],
      [
        "p",
        "ose"
      ],
      [
        "Ġha",
        "ng"
      ],
      [
        "Ġl",
        "and"
      ],
      [
        "Ġy",
        "e"
      ],
      [
        "Ġwith",
        "out"
      ],
      [
        "ON",
        "G"
      ],
      [
        "ion",
        "s"
      ],
      [
        "u",
        "nd"
      ],
      [
        "ĠL",
        "ook"
      ],
      [
        "Ġde",
        "vil"
      ],
      [
        "ct",
        "or"
      ],
      [
        "T",
        "o"
      ],
      [
        "ar",
        "s"
      ],
      [
        "ĠS",
        "h"
      ],
      [
        "OR",
        "T"
      ],
      [
        "T",
        "he"
      ],
      [
        "Ġse",
        "c"
      ],
      [
        "Ġhon",
        "est"
      ],
      [
        "get",
        "her"
      ],
      [
        "ĠL",
        "e"
      ],
      [
        "Ġbod",
        "y"
      ],
      [
        "'",
        "re"
      ],
      [
        "Ġl",
        "ast"
      ],
      [
        "ver",
        "s"
      ],
      [
        "Ġgo",
        "ds"
      ],
      [
        "Ġin",
        "st"
      ],
      [
        "en",
        "er"
      ],
      [
        "Ġen",
        "em"
      ],
      [
        ".",
        "]"
      ],
      [
        "ĠOTH",
        "ELLO"
      ],
      [
        "Ġs",
        "ound"
      ],
      [
        "Ġb",
        "o"
      ],
      [
        "our",
        "s"
      ],
      [
        "M",
        "AN"
      ],
      [
        "Ġt",
        "ears"
      ],
      [
        "Ġatt",
        "end"
      ],
      [
        "ĠI",
        "AG"
      ],
      [
        "Ġl",
        "ay"
      ],
      [
        "Ġg",
        "re"
      ],
      [
        "Ġun",
        "c"
      ],
      [
        "ĠIAG",
        "O"
      ],
      [
        "ĠA",
        "r"
      ],
      [
        "ĠS",
        "IR"
      ],
      [
        "ous",
        "in"
      ],
      [
        "Ġwel",
        "come"
      ],
      [
        "A",
        "TH"
      ],
      [
        "Ġc",
        "are"
      ],
      [
        "at",
        "es"
      ],
      [
        "ĠF",
        "al"
      ],
      [
        "ĠL",
        "E"
      ],
      [
        "Ġsu",
        "n"
      ],
      [
        "ĠTH",
        "E"
      ],
      [
        "j",
        "esty"
      ],
      [
        "Ġm",
        "istress"
      ],
      [
        "Ġo",
        "p"
      ],
      [
        "Ġp",
        "ers"
      ],
      [
        "Ġfa",
        "ult"
      ],
      [
        "n",
        "er"
      ],
      [
        "or",
        "k"
      ],
      [
        "ĠF",
        "are"
      ],
      [
        "Ġst",
        "ri"
      ],
      [
        "Ġde",
        "ed"
      ],
      [
        "L",
        "D"
      ],
      [
        "Ġyour",
        "self"
      ],
      [
        "Ġse",
        "nd"
      ],
      [
        "ĠCA",
        "SS"
      ],
      [
        "Ġcomm",
        "and"
      ],
      [
        "j",
        "ect"
      ],
      [
        "u",
        "es"
      ],
      [
        "Ġse",
        "en"
      ],
      [
        "Ġbre",
        "ath"
      ],
      [
        "e",
        "en"
      ],
      [
        "ĠL",
        "ONG"
      ],
      [
        "id",
        "es"
      ],
      [
        "Ġstr",
        "ange"
      ],
      [
        "i",
        "ly"
      ],
      [
        "Ġp",
        "ati"
      ],
      [
        "IS",
        "S"
      ],
      [
        "Ġgri",
        "ef"
      ],
      [
        "g",
        "er"
      ],
      [
        "Ġf",
        "ire"
      ],
      [
        "ĠThere",
        "fore"
      ],
      [
        "we",
        "en"
      ],
      [
        "D",
        "ES"
      ],
      [
        "i",
        "ers"
      ],
      [
        "ur",
        "ther"
      ],
      [
        "Ġsw",
        "ear"
      ],
      [
        "Ġsa",
        "w"
      ],
      [
        "AB",
        "LE"
      ],
      [
        "Ġfortun",
        "e"
      ],
      [
        "Ġspir",
        "it"
      ],
      [
        "Ġn",
        "ear"
      ],
      [
        "Ġk",
        "iss"
      ],
      [
        "Ġstr",
        "ong"
      ],
      [
        "ĠS",
        "O"
      ],
      [
        "Ġme",
        "ans"
      ],
      [
        "ent",
        "s"
      ],
      [
        "ain",
        "s"
      ],
      [
        "ĠĠĠĠĠĠĠĠĠĠĠĠ",
        "ĠĠĠĠĠ"
      ],
      [
        "d",
        "e"
      ],
      [
        "i",
        "ke"
      ],
      [
        "t",
        "en"
      ],
      [
        "Ġh",
        "igh"
      ],
      [
        "ĠY",
        "ORK"
      ],
      [
        "Ġd",
        "ru"
      ],
      [
        "Ġl",
        "ess"
      ],
      [
        "ent",
        "er"
      ],
      [
        "ĠCl",
        "aud"
      ],
      [
        "Ġs",
        "omet"
      ],
      [
        "OL",
        "K"
      ],
      [
        "Ġrem",
        "em"
      ],
      [
        "Ġw",
        "hy"
      ],
      [
        "at",
        "s"
      ],
      [
        "ĠS",
        "CENE"
      ],
      [
        "ĠB",
        "E"
      ],
      [
        "ĠC",
        "LE"
      ],
      [
        "P",
        "LE"
      ],
      [
        "U",
        "FF"
      ],
      [
        "ĠM",
        "EN"
      ],
      [
        "AC",
        "T"
      ],
      [
        "b",
        "y"
      ],
      [
        "o",
        "p"
      ],
      [
        "Ġp",
        "al"
      ],
      [
        "Ġj",
        "oy"
      ],
      [
        "ĠC",
        "an"
      ],
      [
        "ĠM",
        "AY"
      ],
      [
        "ĠR",
        "E"
      ],
      [
        "i",
        "z"
      ],
      [
        "ho",
        "ld"
      ],
      [
        "Ġpro",
        "ve"
      ],
      [
        "I",
        "TH"
      ],
      [
        "Ġw",
        "ish"
      ],
      [
        "Ġwe",
        "ep"
      ],
      [
        "Ġlo",
        "st"
      ],
      [
        "he",
        "s"
      ],
      [
        "Ġg",
        "row"
      ],
      [
        "Ġh",
        "orse"
      ],
      [
        "ĠE",
        "ven"
      ],
      [
        "us",
        "ic"
      ],
      [
        "Ġru",
        "n"
      ],
      [
        "Ġret",
        "urn"
      ],
      [
        "A",
        "S"
      ],
      [
        "e",
        "y"
      ],
      [
        "Ġon",
        "ly"
      ],
      [
        "EM",
        "B"
      ],
      [
        "Ġyour",
        "s"
      ],
      [
        "Ġsp",
        "o"
      ],
      [
        "IN",
        "IUS"
      ],
      [
        "Ġse",
        "a"
      ],
      [
        "ĠU",
        "n"
      ],
      [
        "Ġarm",
        "s"
      ],
      [
        "ang",
        "er"
      ],
      [
        "Ġthr",
        "ough"
      ],
      [
        "ĠW",
        "AR"
      ],
      [
        "ĠĠĠĠĠĠĠĠĠĠĠĠĠĠĠĠĠĠĠĠ",
        "ĠĠĠĠĠ"
      ],
      [
        "W",
        "ICK"
      ],
      [
        "Ġs",
        "ick"
      ],
      [
        "Ġp",
        "ardon"
      ],
      [
        "A",
        "TR"
      ],
      [
        "I",
        "Z"
      ],
      [
        "d",
        "om"
      ],
      [
        "Ġp",
        "rom"
      ],
      [
        "Ġg",
        "et"
      ],
      [
        "ĠM",
        "ESS"
      ],
      [
        "ad",
        "s"
      ],
      [
        "Ġst",
        "ra"
      ],
      [
        "ĠTIM",
        "ON"
      ],
      [
        "OP",
        "ATR"
      ],
      [
        "ĠCLE",
        "OPATR"
      ],
      [
        "ĠCLEOPATR",
        "A"
      ],
      [
        "L",
        "AND"
      ],
      [
        "Ġt",
        "alk"
      ],
      [
        "UT",
        "EN"
      ],
      [
        "r",
        "an"
      ],
      [
        "r",
        "ink"
      ],
      [
        "ĠC",
        "ass"
      ],
      [
        "one",
        "y"
      ],
      [
        "HA",
        "M"
      ],
      [
        "ĠWAR",
        "WICK"
      ],
      [
        "Ġto",
        "gether"
      ],
      [
        "al",
        "th"
      ],
      [
        "o",
        "e"
      ],
      [
        "Ġf",
        "ree"
      ],
      [
        "i",
        "et"
      ],
      [
        "n",
        "ight"
      ],
      [
        "ĠL",
        "ear"
      ],
      [
        "IN",
        "O"
      ],
      [
        "if",
        "t"
      ],
      [
        "Ġhar",
        "d"
      ],
      [
        "Ġcount",
        "ry"
      ],
      [
        "E",
        "Y"
      ],
      [
        "k",
        "en"
      ],
      [
        "it",
        "he"
      ],
      [
        "ĠS",
        "ome"
      ],
      [
        "ĠM",
        "ay"
      ],
      [
        "E",
        "GE"
      ],
      [
        "Ġd",
        "en"
      ],
      [
        "se",
        "d"
      ],
      [
        "G",
        "ER"
      ],
      [
        "Ġb",
        "orn"
      ],
      [
        "ĠF",
        "R"
      ],
      [
        "Ġit",
        "self"
      ],
      [
        "ĠK",
        "ATH"
      ],
      [
        "ĠJ",
        "ul"
      ],
      [
        "Ġthought",
        "s"
      ],
      [
        "V",
        "IA"
      ],
      [
        "o",
        "ple"
      ],
      [
        "Ġc",
        "ousin"
      ],
      [
        "Ġv",
        "o"
      ],
      [
        "el",
        "s"
      ],
      [
        "Ġj",
        "ud"
      ],
      [
        "Ġdis",
        "p"
      ],
      [
        "Ġle",
        "ft"
      ],
      [
        "Ġbus",
        "iness"
      ],
      [
        "X",
        "T"
      ],
      [
        "ou",
        "th"
      ],
      [
        "Ġs",
        "orrow"
      ],
      [
        "st",
        "er"
      ],
      [
        "ĠThe",
        "se"
      ],
      [
        "ĠG",
        "ENT"
      ],
      [
        "Ġsu",
        "pp"
      ],
      [
        "ERS",
        "ON"
      ],
      [
        "ĠWho",
        "se"
      ],
      [
        "Ġro",
        "yal"
      ],
      [
        "IAN",
        "A"
      ],
      [
        "ĠGENT",
        "LE"
      ],
      [
        "m",
        "orrow"
      ],
      [
        "Ġw",
        "ant"
      ],
      [
        "ĠY",
        "ork"
      ],
      [
        "Ġsay",
        "s"
      ],
      [
        "ĠM",
        "a"
      ],
      [
        "Ġt",
        "em"
      ],
      [
        "Ġs",
        "ing"
      ],
      [
        "Ġw",
        "ilt"
      ],
      [
        "Ġf",
        "ore"
      ],
      [
        "en",
        "ry"
      ],
      [
        "ĠThou",
        "gh"
      ],
      [
        "Ġf",
        "ound"
      ],
      [
        "Ġha",
        "lf"
      ],
      [
        "Ġal",
        "one"
      ],
      [
        ".",
        ","
      ],
      [
        "l",
        "ish"
      ],
      [
        "t",
        "w"
      ],
      [
        "Ġf",
        "ly"
      ],
      [
        "Ġf",
        "oul"
      ],
      [
        "ĠS",
        "YR"
      ],
      [
        "ĠH",
        "enry"
      ],
      [
        "ĠL",
        "u"
      ],
      [
        "Ġre",
        "ad"
      ],
      [
        "AC",
        "USE"
      ],
      [
        "ĠOTH",
        "ERS"
      ],
      [
        "ren",
        "ch"
      ],
      [
        "ĠSYR",
        "ACUSE"
      ],
      [
        "U",
        "L"
      ],
      [
        "ĠW",
        "as"
      ],
      [
        "UC",
        "K"
      ],
      [
        "a",
        "w"
      ],
      [
        "Ġs",
        "ight"
      ],
      [
        "ĠM",
        "ore"
      ],
      [
        "m",
        "er"
      ],
      [
        "ĠT",
        "ro"
      ],
      [
        "Ġg",
        "ener"
      ],
      [
        "ro",
        "ss"
      ],
      [
        "Ġsee",
        "k"
      ],
      [
        "Ġdis",
        "t"
      ],
      [
        "Ġdra",
        "w"
      ],
      [
        "IG",
        "H"
      ],
      [
        "Ġc",
        "ry"
      ],
      [
        "IN",
        "D"
      ],
      [
        "gain",
        "st"
      ],
      [
        "Ġserv",
        "ice"
      ],
      [
        "BER",
        "G"
      ],
      [
        "H",
        "INE"
      ],
      [
        "l",
        "et"
      ],
      [
        "Ġl",
        "ate"
      ],
      [
        "Ġto",
        "ld"
      ],
      [
        "ĠC",
        "OR"
      ],
      [
        "Ġli",
        "es"
      ],
      [
        "Ġex",
        "ce"
      ],
      [
        "Ġbea",
        "uty"
      ],
      [
        "r",
        "s"
      ],
      [
        "EN",
        "GER"
      ],
      [
        "Ġcom",
        "fort"
      ],
      [
        "Ġblood",
        "y"
      ],
      [
        "har",
        "d"
      ],
      [
        "P",
        "RO"
      ],
      [
        "Ġa",
        "w"
      ],
      [
        "Ġs",
        "ister"
      ],
      [
        "Ġm",
        "et"
      ],
      [
        "Ġc",
        "a"
      ],
      [
        "Ġwe",
        "ar"
      ],
      [
        "Ġpr",
        "oud"
      ],
      [
        "RO",
        "M"
      ],
      [
        "ond",
        "er"
      ],
      [
        "TE",
        "XT"
      ],
      [
        "ĠAnt",
        "ony"
      ],
      [
        "H",
        "IP"
      ],
      [
        "K",
        "ES"
      ],
      [
        "ĠĠĠĠĠĠĠĠĠĠĠĠĠĠĠĠ",
        "ĠĠ"
      ],
      [
        "Ġre",
        "ven"
      ],
      [
        "Ġde",
        "f"
      ],
      [
        "AR",
        "E"
      ],
      [
        "AR",
        "Y"
      ],
      [
        "ĠMESS",
        "ENGER"
      ],
      [
        "G",
        "ES"
      ],
      [
        "l",
        "s"
      ],
      [
        "Ġs",
        "ame"
      ],
      [
        "ĠĠĠĠĠĠĠĠĠĠĠĠĠĠĠĠĠĠĠĠ",
        "ĠĠ"
      ],
      [
        "Ġdes",
        "ire"
      ],
      [
        "ĠTIM",
        "E"
      ],
      [
        "Ġ",
        "US"
      ],
      [
        "er",
        "v"
      ],
      [
        "Ġg",
        "ave"
      ],
      [
        "Ġre",
        "c"
      ],
      [
        "IGH",
        "T"
      ],
      [
        "C",
        "OM"
      ],
      [
        "I",
        "AL"
      ],
      [
        "en",
        "se"
      ],
      [
        "ĠA",
        "S"
      ],
      [
        "ĠW",
        "OR"
      ],
      [
        "Ġfa",
        "re"
      ],
      [
        "TH",
        "IS"
      ],
      [
        "IC",
        "T"
      ],
      [
        "Ġwor",
        "k"
      ],
      [
        "ĠTH",
        "AT"
      ],
      [
        "li",
        "ke"
      ],
      [
        "for",
        "m"
      ],
      [
        "Ġdou",
        "bt"
      ],
      [
        "ithe",
        "e"
      ],
      [
        "PRO",
        "V"
      ],
      [
        ".",
        ">"
      ],
      [
        "<",
        "<"
      ],
      [
        "D",
        "ISTRIBUT"
      ],
      [
        "H",
        "IB"
      ],
      [
        "J",
        "ECT"
      ],
      [
        "N",
        "LY"
      ],
      [
        "P",
        "ERSON"
      ],
      [
        "R",
        "ARY"
      ],
      [
        "S",
        "HA"
      ],
      [
        "S",
        "ERV"
      ],
      [
        "W",
        "ITH"
      ],
      [
        "Ġ",
        "USE"
      ],
      [
        "Ġ",
        "199"
      ],
      [
        "Ġb",
        "ro"
      ],
      [
        "ĠI",
        "LL"
      ],
      [
        "ĠW",
        "ORK"
      ],
      [
        "ĠS",
        "UCH"
      ],
      [
        "ĠB",
        "EN"
      ],
      [
        "ĠM",
        "EMB"
      ],
      [
        "ĠO",
        "NLY"
      ],
      [
        "ĠP",
        "ERM"
      ],
      [
        "ĠE",
        "TEXT"
      ],
      [
        "ĠL",
        "IB"
      ],
      [
        "ĠG",
        "UTEN"
      ],
      [
        "ĠD",
        "OWN"
      ],
      [
        "ĠN",
        "OT"
      ],
      [
        "ĠY",
        "OUR"
      ],
      [
        "Ġsu",
        "ff"
      ],
      [
        "LL",
        "Y"
      ],
      [
        "LL",
        "EGE"
      ],
      [
        "Ġpr",
        "ison"
      ],
      [
        "IA",
        "LLY"
      ],
      [
        "ĠAN",
        "Y"
      ],
      [
        "ED",
        "ICT"
      ],
      [
        "ĠCO",
        "LLEGE"
      ],
      [
        "ĠV",
        "ERS"
      ],
      [
        "LO",
        "AD"
      ],
      [
        "ERS",
        "HIP"
      ],
      [
        "AD",
        "ABLE"
      ],
      [
        "IT",
        "ED"
      ],
      [
        "ĠPRO",
        "HIB"
      ],
      [
        "ĠPRO",
        "JECT"
      ],
      [
        "ID",
        "ED"
      ],
      [
        "ĠCOP",
        "YR"
      ],
      [
        "ĠCOM",
        "MERC"
      ],
      [
        "ĠCOM",
        "PLE"
      ],
      [
        "ĠMAC",
        "HINE"
      ],
      [
        "PE",
        "ARE"
      ],
      [
        "199",
        "3"
      ],
      [
        "ĠINC",
        "LU"
      ],
      [
        "ĠDISTRIBUT",
        "ED"
      ],
      [
        "ĠDISTRIBUT",
        "ION"
      ],
      [
        "MERC",
        "IALLY"
      ],
      [
        "ĠCHAR",
        "GES"
      ],
      [
        "ISS",
        "ION"
      ],
      [
        "ĠRE",
        "ADABLE"
      ],
      [
        "INO",
        "IS"
      ],
      [
        "KES",
        "PEARE"
      ],
      [
        "ĠUS",
        "ED"
      ],
      [
        "COM",
        "MERCIALLY"
      ],
      [
        "ĠWOR",
        "LD"
      ],
      [
        "PROV",
        "IDED"
      ],
      [
        ".>",
        ">"
      ],
      [
        "DISTRIBUT",
        "ED"
      ],
      [
        "PERSON",
        "AL"
      ],
      [
        "SHA",
        "KESPEARE"
      ],
      [
        "SERV",
        "ICE"
      ],
      [
        "Ġ199",
        "0"
      ],
      [
        "ĠILL",
        "INOIS"
      ],
      [
        "ĠWORK",
        "S"
      ],
      [
        "ĠBEN",
        "EDICT"
      ],
      [
        "ĠMEMB",
        "ERSHIP"
      ],
      [
        "ĠPERM",
        "ISSION"
      ],
      [
        "ĠLIB",
        "RARY"
      ],
      [
        "ĠGUTEN",
        "BERG"
      ],
      [
        "ĠDOWN",
        "LOAD"
      ],
      [
        "ĠVERS",
        "ION"
      ],
      [
        "ĠPROHIB",
        "ITED"
      ],
      [
        "ĠCOPYR",
        "IGHT"
      ],
      [
        "ĠCOMMERC",
        "IAL"
      ],
      [
        "ĠCOMPLE",
        "TE"
      ],
      [
        "ĠINCLU",
        "DES"
      ],
      [
        "ĠBENEDICT",
        "INE"
      ],
      [
        "R",
        "S"
      ],
      [
        "u",
        "p"
      ],
      [
        "Ġpur",
        "pose"
      ],
      [
        "Ġpe",
        "ople"
      ],
      [
        "ĠROSAL",
        "IND"
      ],
      [
        "u",
        "res"
      ],
      [
        "ĠP",
        "o"
      ],
      [
        "ĠĠĠĠĠĠĠĠĠĠĠĠĠĠĠĠ",
        "ĠĠĠĠĠ"
      ],
      [
        "g",
        "s"
      ],
      [
        "Ġf",
        "ield"
      ],
      [
        "Ġo",
        "ath"
      ],
      [
        "Ġc",
        "ra"
      ],
      [
        "ĠT",
        "IT"
      ],
      [
        "ĠM",
        "RS"
      ],
      [
        "ĠFOR",
        "D"
      ],
      [
        "Ġt",
        "end"
      ],
      [
        "Ġb",
        "ri"
      ],
      [
        "Ġse",
        "lf"
      ],
      [
        "Ġhat",
        "e"
      ],
      [
        "Ġs",
        "it"
      ],
      [
        "it",
        "or"
      ],
      [
        "ces",
        "ter"
      ],
      [
        "Ġco",
        "ld"
      ],
      [
        "D",
        "ER"
      ],
      [
        "I",
        "PH"
      ],
      [
        "k",
        "es"
      ],
      [
        "ĠH",
        "igh"
      ],
      [
        "Ġde",
        "p"
      ],
      [
        "i",
        "al"
      ],
      [
        "Ġs",
        "ad"
      ],
      [
        "re",
        "st"
      ],
      [
        "Ġp",
        "ity"
      ],
      [
        "ĠS",
        "ay"
      ],
      [
        "ound",
        "s"
      ],
      [
        "Ġs",
        "il"
      ],
      [
        "Ġqu",
        "ick"
      ],
      [
        "B",
        "ETH"
      ],
      [
        "a",
        "v"
      ],
      [
        "Ġc",
        "ond"
      ],
      [
        "ĠS",
        "w"
      ],
      [
        "ur",
        "se"
      ],
      [
        "ĠPr",
        "ay"
      ],
      [
        "ĠMAC",
        "BETH"
      ],
      [
        "Ġf",
        "it"
      ],
      [
        "Ġl",
        "ear"
      ],
      [
        "ĠP",
        "AR"
      ],
      [
        "ON",
        "T"
      ],
      [
        "Ġfo",
        "ot"
      ],
      [
        "ĠSp",
        "eak"
      ],
      [
        "W",
        "ARD"
      ],
      [
        "Ġa",
        "ff"
      ],
      [
        "Ġw",
        "at"
      ],
      [
        "Ġd",
        "am"
      ],
      [
        "ĠT",
        "ill"
      ],
      [
        "ĠT",
        "ake"
      ],
      [
        "ĠA",
        "G"
      ],
      [
        "oo",
        "se"
      ],
      [
        "ĠF",
        "rench"
      ],
      [
        "Ġso",
        "on"
      ],
      [
        "Ġknow",
        "s"
      ],
      [
        "Ġbes",
        "eech"
      ],
      [
        "Ġt",
        "imes"
      ],
      [
        "Ġa",
        "ir"
      ],
      [
        "ĠB",
        "A"
      ],
      [
        "OL",
        "US"
      ],
      [
        "IPH",
        "OLUS"
      ],
      [
        "ĠJ",
        "O"
      ],
      [
        "ci",
        "us"
      ],
      [
        "Ġcomp",
        "any"
      ],
      [
        "O",
        "LL"
      ],
      [
        "n",
        "s"
      ],
      [
        "Ġw",
        "in"
      ],
      [
        "ĠN",
        "e"
      ],
      [
        "Ġlo",
        "se"
      ],
      [
        "Ġlook",
        "s"
      ],
      [
        "m",
        "ost"
      ],
      [
        "Ġcou",
        "n"
      ],
      [
        "ĠGENTLE",
        "MAN"
      ],
      [
        "b",
        "our"
      ],
      [
        "Ġs",
        "k"
      ],
      [
        "Ġd",
        "are"
      ],
      [
        "Ġfor",
        "g"
      ],
      [
        "ĠL",
        "AD"
      ],
      [
        "Ġcomm",
        "on"
      ],
      [
        "ĠMa",
        "jesty"
      ],
      [
        "E",
        "x"
      ],
      [
        "c",
        "ess"
      ],
      [
        "l",
        "ing"
      ],
      [
        "ĠP",
        "AND"
      ],
      [
        "ĠĠĠĠĠĠĠĠĠĠĠĠĠĠĠĠ",
        "ĠĠĠ"
      ],
      [
        "ĠWe",
        "re"
      ],
      [
        "Ġdre",
        "am"
      ],
      [
        "Ġa",
        "ge"
      ],
      [
        "ĠW",
        "ar"
      ],
      [
        "ĠC",
        "R"
      ],
      [
        "Ġex",
        "p"
      ],
      [
        "Ġday",
        "s"
      ],
      [
        "Ġunc",
        "le"
      ],
      [
        "H",
        "N"
      ],
      [
        "x",
        "t"
      ],
      [
        "Ġt",
        "er"
      ],
      [
        "Ġd",
        "anger"
      ],
      [
        "Ġde",
        "l"
      ],
      [
        "AR",
        "US"
      ],
      [
        "Ġchar",
        "ge"
      ],
      [
        "ĠJO",
        "HN"
      ],
      [
        "u",
        "b"
      ],
      [
        "Ġc",
        "ho"
      ],
      [
        "ar",
        "ry"
      ],
      [
        "Ġin",
        "f"
      ],
      [
        "ĠH",
        "EL"
      ],
      [
        "ĠM",
        "ad"
      ],
      [
        "Ġv",
        "i"
      ],
      [
        "Ġtru",
        "st"
      ],
      [
        "Ġmar",
        "k"
      ],
      [
        "ĠLe",
        "on"
      ],
      [
        "ĠHEL",
        "EN"
      ],
      [
        "Ġd",
        "rink"
      ],
      [
        "Ġser",
        "ve"
      ],
      [
        "Ġs",
        "in"
      ],
      [
        "Ġm",
        "usic"
      ],
      [
        "Ġw",
        "a"
      ],
      [
        "et",
        "er"
      ],
      [
        "Ġu",
        "nd"
      ],
      [
        "Ġlo",
        "ves"
      ],
      [
        "Ġbet",
        "ween"
      ],
      [
        "ment",
        "s"
      ],
      [
        "ĠOn",
        "e"
      ],
      [
        "L",
        "AN"
      ],
      [
        "b",
        "e"
      ],
      [
        "n",
        "ow"
      ],
      [
        "t",
        "he"
      ],
      [
        "ĠP",
        "ro"
      ],
      [
        "ur",
        "d"
      ],
      [
        "ĠK",
        "ent"
      ],
      [
        "ic",
        "es"
      ],
      [
        "Ġpr",
        "ince"
      ],
      [
        "H",
        "E"
      ],
      [
        "v",
        "ent"
      ],
      [
        "ĠĠĠĠ",
        "ĠĠ"
      ],
      [
        "ha",
        "m"
      ],
      [
        "Ġfa",
        "v"
      ],
      [
        "Ġgener",
        "al"
      ],
      [
        "g",
        "g"
      ],
      [
        "i",
        "ble"
      ],
      [
        "t",
        "ed"
      ],
      [
        "ĠM",
        "ost"
      ],
      [
        "Ġe",
        "ach"
      ],
      [
        "Ġas",
        "k"
      ],
      [
        "ĠEd",
        "ward"
      ],
      [
        "ĠC",
        "om"
      ],
      [
        "Ġbel",
        "ieve"
      ],
      [
        "ĠFare",
        "well"
      ],
      [
        "c",
        "ause"
      ],
      [
        "w",
        "ick"
      ],
      [
        "Ġw",
        "ise"
      ],
      [
        "ĠH",
        "a"
      ],
      [
        "Ġgra",
        "ve"
      ],
      [
        "Ġworth",
        "y"
      ],
      [
        "i",
        "ves"
      ],
      [
        "ĠC",
        "IT"
      ],
      [
        "ĠL",
        "ike"
      ],
      [
        "Ġli",
        "ves"
      ],
      [
        "Ġqu",
        "een"
      ],
      [
        "IZ",
        "EN"
      ],
      [
        "ĠHigh",
        "ness"
      ],
      [
        "ĠCIT",
        "IZEN"
      ],
      [
        "re",
        "w"
      ],
      [
        "ĠR",
        "ic"
      ],
      [
        "Ġsu",
        "m"
      ],
      [
        "ING",
        "HAM"
      ],
      [
        "ĠV",
        "AL"
      ],
      [
        "ĠĠĠĠĠĠĠĠĠĠĠĠĠĠĠĠĠĠĠĠ",
        "ĠĠĠ"
      ],
      [
        "Ġgra",
        "cious"
      ],
      [
        "Ġwar",
        "rant"
      ],
      [
        "ROM",
        "IO"
      ],
      [
        "Ġc",
        "ertain"
      ],
      [
        "Ġy",
        "ears"
      ],
      [
        "Ġp",
        "ar"
      ],
      [
        "ut",
        "us"
      ],
      [
        "Ġthy",
        "self"
      ],
      [
        "Ġbr",
        "ought"
      ],
      [
        "Ġmar",
        "ry"
      ],
      [
        "ak",
        "ing"
      ],
      [
        "ELL",
        "A"
      ],
      [
        "ĠMar",
        "ry"
      ],
      [
        "AB",
        "ELLA"
      ],
      [
        "Ġhapp",
        "y"
      ],
      [
        "a",
        "im"
      ],
      [
        "a",
        "ff"
      ],
      [
        "Ġm",
        "oney"
      ],
      [
        "Ġf",
        "urther"
      ],
      [
        "ĠE",
        "N"
      ],
      [
        "Ġknow",
        "n"
      ],
      [
        "f",
        "ord"
      ],
      [
        "g",
        "ue"
      ],
      [
        "Ġb",
        "ir"
      ],
      [
        "Ġy",
        "ield"
      ],
      [
        "ĠT",
        "ell"
      ],
      [
        "ĠL",
        "ady"
      ],
      [
        "ie",
        "f"
      ],
      [
        "Ġho",
        "ly"
      ],
      [
        "Ġwr",
        "it"
      ],
      [
        "ĠWar",
        "wick"
      ],
      [
        "T",
        "A"
      ],
      [
        "t",
        "ing"
      ],
      [
        "Ġm",
        "in"
      ],
      [
        "Ġb",
        "at"
      ],
      [
        "Ġc",
        "ut"
      ],
      [
        "ĠB",
        "O"
      ],
      [
        "Ġcont",
        "ent"
      ],
      [
        "Ġgi",
        "ven"
      ],
      [
        "ĠRic",
        "hard"
      ],
      [
        "ha",
        "l"
      ],
      [
        "Ġb",
        "ar"
      ],
      [
        "Ġb",
        "ound"
      ],
      [
        "er",
        "y"
      ],
      [
        "ĠE",
        "D"
      ],
      [
        "EN",
        "IUS"
      ],
      [
        "Ġother",
        "s"
      ],
      [
        "Ġbra",
        "ve"
      ],
      [
        "ĠMEN",
        "ENIUS"
      ],
      [
        "ĠMad",
        "am"
      ],
      [
        "ĠO",
        "LI"
      ],
      [
        "est",
        "ion"
      ],
      [
        "fe",
        "ction"
      ],
      [
        "ĠBe",
        "fore"
      ],
      [
        "ANT",
        "IPHOLUS"
      ],
      [
        "a",
        "z"
      ],
      [
        "Ġa",
        "c"
      ],
      [
        "er",
        "ve"
      ],
      [
        "Ġhe",
        "ll"
      ],
      [
        "Ġple",
        "asure"
      ],
      [
        "Ġvirt",
        "ue"
      ],
      [
        "P",
        "ER"
      ],
      [
        "g",
        "ar"
      ],
      [
        "Ġp",
        "ast"
      ],
      [
        "Ġde",
        "ep"
      ],
      [
        "ĠY",
        "es"
      ],
      [
        "Ġple",
        "as"
      ],
      [
        "UCH",
        "IO"
      ],
      [
        "Ġpra",
        "ise"
      ],
      [
        "ĠPRIN",
        "CE"
      ],
      [
        "UCK",
        "INGHAM"
      ],
      [
        "ĠED",
        "WARD"
      ],
      [
        "Ġp",
        "ay"
      ],
      [
        "Ġbe",
        "at"
      ],
      [
        "Ġin",
        "c"
      ],
      [
        "ĠB",
        "UCKINGHAM"
      ],
      [
        "IO",
        "LAN"
      ],
      [
        "ĠEng",
        "lish"
      ],
      [
        "ĠBr",
        "utus"
      ],
      [
        "IOLAN",
        "US"
      ],
      [
        "b",
        "s"
      ],
      [
        "ce",
        "ed"
      ],
      [
        "Ġso",
        "vere"
      ],
      [
        "ĠN",
        "OR"
      ],
      [
        "Ġpo",
        "ss"
      ],
      [
        "Ġrep",
        "ort"
      ],
      [
        "ĠANTON",
        "IO"
      ],
      [
        "UFF",
        "OLK"
      ],
      [
        "ĠLAD",
        "Y"
      ],
      [
        "Ġa",
        "ct"
      ],
      [
        "Ġs",
        "ide"
      ],
      [
        "Ġc",
        "or"
      ],
      [
        "ĠA",
        "way"
      ],
      [
        "ow",
        "ard"
      ],
      [
        "ĠP",
        "ETR"
      ],
      [
        "ON",
        "A"
      ],
      [
        "Ġpo",
        "int"
      ],
      [
        "ĠPETR",
        "UCHIO"
      ],
      [
        "s",
        "hip"
      ],
      [
        "Ġw",
        "hile"
      ],
      [
        "Ġd",
        "iv"
      ],
      [
        "ĠS",
        "UFFOLK"
      ],
      [
        "ent",
        "y"
      ],
      [
        "ĠD",
        "e"
      ],
      [
        "Ġsa",
        "ve"
      ],
      [
        "Ġheart",
        "s"
      ],
      [
        "ĠBe",
        "at"
      ],
      [
        "Ġle",
        "ad"
      ],
      [
        "ĠAl",
        "as"
      ],
      [
        "UN",
        "T"
      ],
      [
        "ĠCOR",
        "IOLANUS"
      ],
      [
        "i",
        "ant"
      ],
      [
        "Ġs",
        "ake"
      ],
      [
        "ĠS",
        "ee"
      ],
      [
        "ĠH",
        "ad"
      ],
      [
        "ĠR",
        "os"
      ],
      [
        "Ġkn",
        "ave"
      ],
      [
        "ĠGlou",
        "cester"
      ],
      [
        "Ġt",
        "en"
      ],
      [
        "ĠP",
        "l"
      ],
      [
        "Ġre",
        "qu"
      ],
      [
        "us",
        "h"
      ],
      [
        "Ġj",
        "o"
      ],
      [
        "ĠTIT",
        "US"
      ],
      [
        "Ġb",
        "old"
      ],
      [
        "ll",
        "y"
      ],
      [
        "IN",
        "A"
      ],
      [
        "Ġde",
        "v"
      ],
      [
        "Ġri",
        "ch"
      ],
      [
        "ĠPAND",
        "ARUS"
      ],
      [
        "e",
        "k"
      ],
      [
        "Ġt",
        "ouch"
      ],
      [
        "Ġm",
        "outh"
      ],
      [
        "Ġw",
        "is"
      ],
      [
        "ĠT",
        "OB"
      ],
      [
        "Ġg",
        "all"
      ],
      [
        "ENT",
        "INE"
      ],
      [
        "OWN",
        "E"
      ],
      [
        "Ġpers",
        "on"
      ],
      [
        "ĠTOB",
        "Y"
      ],
      [
        "n",
        "e"
      ],
      [
        "Ġm",
        "ock"
      ],
      [
        "Ġf",
        "our"
      ],
      [
        "ĠW",
        "h"
      ],
      [
        "ĠC",
        "on"
      ],
      [
        "Ġe",
        "at"
      ],
      [
        "oo",
        "f"
      ],
      [
        "ES",
        "AR"
      ],
      [
        "Ġkn",
        "ight"
      ],
      [
        "ĠCA",
        "ESAR"
      ],
      [
        "ĠHELEN",
        "A"
      ],
      [
        "n",
        "ed"
      ],
      [
        "Ġ",
        "est"
      ],
      [
        "Ġm",
        "orn"
      ],
      [
        "Ġc",
        "ol"
      ],
      [
        "ot",
        "s"
      ],
      [
        "Ġsu",
        "it"
      ],
      [
        "Ġsold",
        "iers"
      ],
      [
        "Ġgr",
        "ound"
      ],
      [
        "D",
        "EM"
      ],
      [
        "Ġs",
        "ur"
      ],
      [
        "Ġs",
        "ign"
      ],
      [
        "an",
        "c"
      ],
      [
        "ĠD",
        "ES"
      ],
      [
        "Ġlo",
        "v"
      ],
      [
        "ie",
        "ce"
      ],
      [
        "Ġpro",
        "f"
      ],
      [
        "Ġconf",
        "ess"
      ],
      [
        "ĠBER",
        "OWNE"
      ],
      [
        "ĠVAL",
        "ENTINE"
      ],
      [
        "DEM",
        "ONA"
      ],
      [
        "ĠDES",
        "DEMONA"
      ],
      [
        "D",
        "ROMIO"
      ],
      [
        "n",
        "o"
      ],
      [
        "ĠC",
        "h"
      ],
      [
        "ĠTh",
        "us"
      ],
      [
        "Ġhea",
        "vy"
      ],
      [
        "ESS",
        "ID"
      ],
      [
        "Ġenem",
        "y"
      ],
      [
        "ĠCR",
        "ESSID"
      ],
      [
        "ĠCRESSID",
        "A"
      ],
      [
        "es",
        "h"
      ],
      [
        "ĠA",
        "h"
      ],
      [
        "ĠS",
        "HA"
      ],
      [
        "Ġbl",
        "ack"
      ],
      [
        "ink",
        "s"
      ],
      [
        "Ġson",
        "s"
      ],
      [
        "Ġtend",
        "er"
      ],
      [
        "Ġg",
        "ar"
      ],
      [
        "am",
        "p"
      ],
      [
        "Ġmer",
        "ry"
      ],
      [
        "Ġmer",
        "cy"
      ],
      [
        "!",
        "'"
      ],
      [
        "I",
        "ER"
      ],
      [
        "S",
        "C"
      ],
      [
        "ĠM",
        "ake"
      ],
      [
        "ed",
        "i"
      ],
      [
        "hi",
        "l"
      ],
      [
        "LL",
        "OW"
      ],
      [
        "Ġgo",
        "es"
      ],
      [
        "ĠPRO",
        "TE"
      ],
      [
        "Ġsub",
        "ject"
      ],
      [
        "ĠPAR",
        "OLL"
      ],
      [
        "ĠSHA",
        "LLOW"
      ],
      [
        "ĠPROTE",
        "US"
      ],
      [
        "ĠPAROLL",
        "ES"
      ],
      [
        "i",
        "or"
      ],
      [
        "Ġw",
        "oo"
      ],
      [
        "Ġh",
        "ot"
      ],
      [
        "ĠH",
        "or"
      ],
      [
        "al",
        "t"
      ],
      [
        "Ġkn",
        "ew"
      ],
      [
        "Ġwom",
        "en"
      ],
      [
        "Ġfare",
        "well"
      ],
      [
        "Ġw",
        "atch"
      ],
      [
        "Ġb",
        "os"
      ],
      [
        "ĠT",
        "RO"
      ],
      [
        "ri",
        "es"
      ],
      [
        "Ġr",
        "ing"
      ],
      [
        "ĠS",
        "c"
      ],
      [
        "ES",
        "US"
      ],
      [
        "Ġv",
        "is"
      ],
      [
        "Ġbl",
        "ess"
      ],
      [
        "PH",
        "ESUS"
      ],
      [
        "IL",
        "US"
      ],
      [
        "Ġpati",
        "ence"
      ],
      [
        "ĠTRO",
        "ILUS"
      ],
      [
        "i",
        "res"
      ],
      [
        "s",
        "ue"
      ],
      [
        "ĠS",
        "OL"
      ],
      [
        "ĠS",
        "ince"
      ],
      [
        "ER",
        "D"
      ],
      [
        "Ġfa",
        "st"
      ],
      [
        "Ġne",
        "xt"
      ],
      [
        "IR",
        "D"
      ],
      [
        "ĠTH",
        "IRD"
      ],
      [
        "Y",
        "M"
      ],
      [
        "Ġd",
        "ro"
      ],
      [
        "Ġp",
        "en"
      ],
      [
        "ĠP",
        "ed"
      ],
      [
        "our",
        "ish"
      ],
      [
        "AN",
        "CE"
      ],
      [
        "Ġsh",
        "ort"
      ],
      [
        "Ġthem",
        "selves"
      ],
      [
        "Ġqu",
        "ar"
      ],
      [
        "C",
        "US"
      ],
      [
        "c",
        "om"
      ],
      [
        "u",
        "ff"
      ],
      [
        "re",
        "m"
      ],
      [
        "Ġb",
        "urn"
      ],
      [
        "Ġc",
        "ast"
      ],
      [
        "ĠO",
        "ut"
      ],
      [
        "Ġsp",
        "eed"
      ],
      [
        "all",
        "y"
      ],
      [
        "Ġcour",
        "se"
      ],
      [
        "ĠLUC",
        "IUS"
      ],
      [
        "Ġbos",
        "om"
      ],
      [
        ".",
        "-"
      ],
      [
        "r",
        "ay"
      ],
      [
        "Ġto",
        "wn"
      ],
      [
        "at",
        "ed"
      ],
      [
        "ĠP",
        "er"
      ],
      [
        "ĠD",
        "es"
      ],
      [
        "Ġdes",
        "p"
      ],
      [
        "Ġchan",
        "ge"
      ],
      [
        "Ġvo",
        "ice"
      ],
      [
        "p",
        "l"
      ],
      [
        "Ġl",
        "ad"
      ],
      [
        "ĠA",
        "L"
      ],
      [
        "ve",
        "l"
      ],
      [
        "as",
        "k"
      ],
      [
        "th",
        "ing"
      ],
      [
        "Ġear",
        "s"
      ],
      [
        "Ġop",
        "en"
      ],
      [
        "ĠPed",
        "ro"
      ],
      [
        "u",
        "ous"
      ],
      [
        "Ġ",
        "ord"
      ],
      [
        "Ġb",
        "ase"
      ],
      [
        "st",
        "and"
      ],
      [
        "ĠB",
        "en"
      ],
      [
        "ir",
        "m"
      ],
      [
        "ĠE",
        "PHESUS"
      ],
      [
        "Ġne",
        "ither"
      ],
      [
        "Ġqu",
        "estion"
      ],
      [
        "Ġpro",
        "p"
      ],
      [
        "ĠIS",
        "ABELLA"
      ],
      [
        "Ġent",
        "er"
      ],
      [
        "Ġbe",
        "hold"
      ],
      [
        "Ġha",
        "ir"
      ],
      [
        "ĠC",
        "ap"
      ],
      [
        "ĠP",
        "ORT"
      ],
      [
        "Ġtru",
        "mp"
      ],
      [
        "Ġtoo",
        "k"
      ],
      [
        "Ġapp",
        "ear"
      ],
      [
        "Ġent",
        "reat"
      ],
      [
        "Ġgu",
        "ard"
      ],
      [
        "ĠSh",
        "ould"
      ],
      [
        "Ġstra",
        "ight"
      ],
      [
        "ĠPORT",
        "IA"
      ],
      [
        "!",
        "-"
      ],
      [
        "Ġw",
        "all"
      ],
      [
        "Ġth",
        "ri"
      ],
      [
        "Ġto",
        "ward"
      ],
      [
        "ot",
        "e"
      ],
      [
        "Ġdo",
        "g"
      ],
      [
        "ge",
        "l"
      ],
      [
        "Ġgentle",
        "men"
      ],
      [
        "eth",
        "inks"
      ],
      [
        "ĠRome",
        "o"
      ],
      [
        "ix",
        "t"
      ],
      [
        "Ġban",
        "ish"
      ],
      [
        "Ġremem",
        "ber"
      ],
      [
        "Ġsovere",
        "ign"
      ],
      [
        "e",
        "c"
      ],
      [
        "g",
        "es"
      ],
      [
        "Ġ",
        "1"
      ],
      [
        "re",
        "ady"
      ],
      [
        "Ġwe",
        "ak"
      ],
      [
        "Ġwor",
[...]
