{
  "version": "1.0",
  "truncation": null,
  "padding": null,
  "added_tokens": [
    {
      "id": 0,
      "content": "<|unk|>",
      "single_word": false,
      "lstrip": false,
      "rstrip": false,
      "normalized": false,
      "special": true
    },
    {
      "id": 1,
      "content": "<|endoftext|>",
      "single_word": false,
      "lstrip": false,
      "rstrip": false,
      "normalized": false,
      "special": true
    }
  ],
  "normalizer": null,
  "pre_tokenizer": {
    "type": "ByteLevel",
    "add_prefix_space": false,
    "trim_offsets": true,
    "use_regex": true
  },
  "post_processor": null,
  "decoder": {
    "type": "ByteLevel",
    "add_prefix_space": true,
    "trim_offsets": true,
    "use_regex": true
  },
  "model": {
    "type": "BPE",
    "dropout": null,
    "unk_token": "<|unk|>",
    "continuing_subword_prefix": null,
    "end_of_word_suffix": null,
    "fuse_unk": false,
    "byte_fallback": false,
    "ignore_merges": false,
    "vocab": {
      "<|unk|>": 0,
      "<|endoftext|>": 1,
      "!": 2,
      "\"": 3,
      "#": 4,
      "$": 5,
      "%": 6,
      "&": 7,
      "'": 8,
      "(": 9,
      ")": 10,
      "*": 11,
      "+": 12,
      ",": 13,
      "-": 14,
      ".": 15,
      "/": 16,
      "0": 17,
      "1": 18,
      "2": 19,
      "3": 20,
      "4": 21,
      "5": 22,
      "6": 23,
      "7": 24,
      "8": 25,
      "9": 26,
      ":": 27,
      ";": 28,
      "<": 29,
      "=": 30,
      ">": 31,
      "?": 32,
      "@": 33,
      "A": 34,
      "B": 35,
      "C": 36,
      "D": 37,
      "E": 38,
      "F": 39,
      "G": 40,
      "H": 41,
      "I": 42,
      "J": 43,
      "K": 44,
      "L": 45,
      "M": 46,
      "N": 47,
      "O": 48,
      "P": 49,
      "Q": 50,
      "R": 51,
      "S": 52,
      "T": 53,
      "U": 54,
      "V": 55,
      "W": 56,
      "X": 57,
      "Y": 58,
      "Z": 59,
      "[": 60,
      "\\": 61,
      "]": 62,
      "^": 63,
      "_": 64,
      "`": 65,
      "a": 66,
      "b": 67,
      "c": 68,
      "d": 69,
      "e": 70,
      "f": 71,
      "g": 72,
      "h": 73,
      "i": 74,
      "j": 75,
      "k": 76,
      "l": 77,
      "m": 78,
      "n": 79,
      "o": 80,
      "p": 81,
      "q": 82,
      "r": 83,
      "s": 84,
      "t": 85,
      "u": 86,
      "v": 87,
      "w": 88,
      "x": 89,
      "y": 90,
      "z": 91,
      "{": 92,
      "|": 93,
      "}": 94,
      "~": 95,
      "¡": 96,
      "¢": 97,
      "£": 98,
      "¤": 99,
      "¥": 100,
      "¦": 101,
      "§": 102,
      "¨": 103,
      "©": 104,
      "ª": 105,
      "«": 106,
      "¬": 107,
      "®": 108,
      "¯": 109,
      "°": 110,
      "±": 111,
      "²": 112,
      "³": 113,
      "´": 114,
      "µ": 115,
      "¶": 116,
      "·": 117,
      "¸": 118,
      "¹": 119,
      "º": 120,
      "»": 121,
      "¼": 122,
      "½": 123,
      "¾": 124,
      "¿": 125,
      "À": 126,
      "Á": 127,
      "Â": 128,
      "Ã": 129,
      "Ä": 130,
      "Å": 131,
      "Æ": 132,
      "Ç": 133,
      "È": 134,
      "É": 135,
      "Ê": 136,
      "Ë": 137,
      "Ì": 138,
      "Í": 139,
      "Î": 140,
      "Ï": 141,
      "Ð": 142,
      "Ñ": 143,
      "Ò": 144,
      "Ó": 145,
      "Ô": 146,
      "Õ": 147,
      "Ö": 148,
      "×": 149,
      "Ø": 150,
      "Ù": 151,
      "Ú": 152,
      "Û": 153,
      "Ü": 154,
      "Ý": 155,
      "Þ": 156,
      "ß": 157,
      "à": 158,
      "á": 159,
      "â": 160,
      "ã": 161,
      "ä": 162,
      "å": 163,
      "æ": 164,
      "ç": 165,
      "è": 166,
      "é": 167,
      "ê": 168,
      "ë": 169,
      "ì": 170,
      "í": 171,
      "î": 172,
      "ï": 173,
      "ð": 174,
      "ñ": 175,
      "ò": 176,
      "ó": 177,
      "ô": 178,
      "õ": 179,
      "ö": 180,
      "÷": 181,
      "ø": 182,
      "ù": 183,
      "ú": 184,
      "û": 185,
      "ü": 186,
      "ý": 187,
      "þ": 188,
      "ÿ": 189,
      "Ā": 190,
      "ā": 191,
      "Ă": 192,
      "ă": 193,
      "Ą": 194,
      "ą": 195,
      "Ć": 196,
      "ć": 197,
      "Ĉ": 198,
      "ĉ": 199,
      "Ċ": 200,
      "ċ": 201,
      "Č": 202,
      "č": 203,
      "Ď": 204,
      "ď": 205,
      "Đ": 206,
      "đ": 207,
      "Ē": 208,
      "ē": 209,
      "Ĕ": 210,
      "ĕ": 211,
      "Ė": 212,
      "ė": 213,
      "Ę": 214,
      "ę": 215,
      "Ě": 216,
      "ě": 217,
      "Ĝ": 218,
      "ĝ": 219,
      "Ğ": 220,
      "ğ": 221,
      "Ġ": 222,
      "ġ": 223,
      "Ģ": 224,
      "ģ": 225,
      "Ĥ": 226,
      "ĥ": 227,
      "Ħ": 228,
      "ħ": 229,
      "Ĩ": 230,
      "ĩ": 231,
      "Ī": 232,
      "ī": 233,
      "Ĭ": 234,
      "ĭ": 235,
      "Į": 236,
      "į": 237,
      "İ": 238,
      "ı": 239,
      "Ĳ": 240,
      "ĳ": 241,
      "Ĵ": 242,
      "ĵ": 243,
      "Ķ": 244,
      "ķ": 245,
      "ĸ": 246,
      "Ĺ": 247,
      "ĺ": 248,
      "Ļ": 249,
      "ļ": 250,
      "Ľ": 251,
      "ľ": 252,
      "Ŀ": 253,
      "ŀ": 254,
      "Ł": 255,
      "ł": 256,
      "Ń": 257,
      "he": 258,
      "Ġt": 259,
      "Ġa": 260,
      "Ġs": 261,
      "Ġw": 262,
      "nd": 263,
      "Ġthe": 264,
      "ed": 265,
      "Ġand": 266,
      "Ġto": 267,
      "in": 268,
      "Ġb": 269,
      "Ġh": 270,
      "Ġwa": 271,
      "re": 272,
      "Ġf": 273,
      "ou": 274,
      "it": 275,
      "Ġl": 276,
      "Ġc": 277,
      "Ġhe": 278,
      "Ġd": 279,
      "er": 280,
      "Ġwas": 281,
      "Ġm": 282,
      "Ġp": 283,
      "om": 284,
      "Ġo": 285,
      "ĠT": 286,
      "ay": 287,
      "ing": 288,
      "ar": 289,
      "is": 290,
      "il": 291,
      "Ġg": 292,
      "id": 293,
      "at": 294,
      "Ġsa": 295,
      "en": 296,
      "Ġn": 297,
      "Ġha": 298,
      "ĠS": 299,
      "an": 300,
      "im": 301,
      "ĠThe": 302,
      "or": 303,
      "on": 304,
      "Ġit": 305,
      "Ġth": 306,
      "ll": 307,
      "le": 308,
      "ĠH": 309,
      "Ġher": 310,
      "et": 311,
      "ir": 312,
      "ot": 313,
      "ĠShe": 314,
      "ĠHe": 315,
      "Ġin": 316,
      "es": 317,
      "ver": 318,
      "ow": 319,
      "ut": 320,
      "ck": 321,
      "Ġu": 322,
      "Ġe": 323,
      "Ġsaid": 324,
      "ld": 325,
      "Ġ\"": 326,
      "Ġy": 327,
      "oo": 328,
      "ig": 329,
      "ĠThey": 330,
      "am": 331,
      "Ġbe": 332,
      "ily": 333,
      "Ġr": 334,
      "Ġst": 335,
      "ce": 336,
      "Ġshe": 337,
      "pp": 338,
      "ith": 339,
      "ĠI": 340,
      "On": 341,
      "ke": 342,
      "Ġwith": 343,
      "ve": 344,
      "ked": 345,
      "Lily": 346,
      "Ġof": 347,
      "Ġon": 348,
      "ri": 349,
      "Ġso": 350,
      "Ġhis": 351,
      "Ġyou": 352,
      "Ġpl": 353,
      "Ġday": 354,
      "very": 355,
      "nt": 356,
      "ad": 357,
      "Ġthat": 358,
      "Ġup": 359,
      "Ġplay": 360,
      "st": 361,
      "Ġhad": 362,
      "el": 363,
      "Ġthey": 364,
      "Ġmom": 365,
      "ĠLily": 366,
      "Ġwe": 367,
      "Ġfor": 368,
      "my": 369,
      "'s": 370,
      "ould": 371,
      "un": 372,
      "ĠB": 373,
      "The": 374,
      "itt": 375,
      "ent": 376,
      "Ġli": 377,
      "Ġhapp": 378,
      "her": 379,
      "out": 380,
      "ch": 381,
      "Ġsh": 382,
      "Ġwant": 383,
      "ly": 384,
      "ittle": 385,
      "ound": 386,
      "ime": 387,
      "all": 388,
      "Ġlittle": 389,
      "Ġdo": 390,
      "end": 391,
      "Ġtime": 392,
      "Ġvery": 393,
      "ome": 394,
      "Ġthere": 395,
      "Ġwh": 396,
      "se": 397,
      "ht": 398,
      "Ġk": 399,
      "ĠĊ": 400,
      "Ġsm": 401,
      "Ġne": 402,
      "Ġre": 403,
      "al": 404,
      "Ġnot": 405,
      "Ġbig": 406,
      "Ġhappy": 407,
      "riend": 408,
      "ack": 409,
      "Ġfriend": 410,
      "Ġas": 411,
      "Ġsaw": 412,
      "Ġbut": 413,
      "ĠM": 414,
      "Ġan": 415,
      "ra": 416,
      "One": 417,
      ".\"": 418,
      "ry": 419,
      "ĠIt": 420,
      "Ġis": 421,
      "ved": 422,
      "!\"": 423,
      "'t": 424,
      "ide": 425,
      "Once": 426,
      "Ġloo": 427,
      "ake": 428,
      "ug": 429,
      "Ġwere": 430,
      "Ġlo": 431,
      "ter": 432,
      "ec": 433,
      "ore": 434,
      "ĠTim": 435,
      "Ġbo": 436,
      "irl": 437,
      "Ġupon": 438,
      "Ġhim": 439,
      "Ġtoo": 440,
      "Ġgirl": 441,
      "Ġse": 442,
      "Ġgo": 443,
      "Ġwanted": 444,
      "Ġj": 445,
      "ard": 446,
      "Ġout": 447,
      "ill": 448,
      "Ġsmil": 449,
      "fu": 450,
      "way": 451,
      "hen": 452,
      "ind": 453,
      "Ġat": 454,
      "Ġcould": 455,
      "Ġsp": 456,
      "Ġthem": 457,
      "ur": 458,
      "ain": 459,
      "Ġex": 460,
      "ĠA": 461,
      "ĠJ": 462,
      "Ġare": 463,
      "Ġdid": 464,
      "Ġtheir": 465,
      "round": 466,
      "Ġwent": 467,
      "hed": 468,
      "Ġnam": 469,
      "ic": 470,
      "art": 471,
      "lp": 472,
      "rom": 473,
      "Ġcan": 474,
      "Ġhave": 475,
      "Ġhelp": 476,
      "hing": 477,
      "?\"": 478,
      "ful": 479,
      "Ġfriends": 480,
      "ight": 481,
      "Ġall": 482,
      "um": 483,
      "Ġkn": 484,
      "ood": 485,
      "one": 486,
      "ark": 487,
      "Ġback": 488,
      "Ġnamed": 489,
      "ĠBen": 490,
      "Ġcl": 491,
      "Ġsmiled": 492,
      "are": 493,
      "Ġfun": 494,
      "oug": 495,
      "Ġasked": 496,
      "Ġno": 497,
      "Ġloved": 498,
      "Ã¢": 499,
      "âĤ": 500,
      "âĤ¬": 501,
      "ĠOne": 502,
      "elt": 503,
      "Ġle": 504,
      "ĠTimmy": 505,
      "Ġfelt": 506,
      "Ġsc": 507,
      "op": 508,
      "ick": 509,
      "Ġaround": 510,
      "Ġlooked": 511,
      "side": 512,
      "You": 513,
      "Ġal": 514,
      "ame": 515,
      "get": 516,
      "ĠTom": 517,
      "Ġfe": 518,
      "Ġtoy": 519,
      "Ġbir": 520,
      "omet": 521,
      "Ġboy": 522,
      "Ġman": 523,
      "ure": 524,
      "Ġsee": 525,
      "Ġme": 526,
      "Ġlike": 527,
      "Ġro": 528,
      "Ġbr": 529,
      "Ġstart": 530,
      "Ġwould": 531,
      "as": 532,
      "Ġsome": 533,
      "Ġbird": 534,
      "dd": 535,
      "ice": 536,
      "Ġsay": 537,
      "ong": 538,
      "ĠW": 539,
      "Ġsomet": 540,
      "gether": 541,
      "Ġwor": 542,
      "ree": 543,
      "king": 544,
      "Ġag": 545,
      "ag": 546,
      ",\"": 547,
      "ings": 548,
      "Ġwhat": 549,
      "Ġtogether": 550,
      "ade": 551,
      "own": 552,
      "Ġfa": 553,
      "Ġstarted": 554,
      "ie": 555,
      "ared": 556,
      "Ġaway": 557,
      "Ġmake": 558,
      "ited": 559,
      "oud": 560,
      "Ġsomething": 561,
      "Ġran": 562,
      "Ġpark": 563,
      "if": 564,
      "ĠBut": 565,
      "Ġexc": 566,
      "Ġco": 567,
      "Ġmade": 568,
      "Ġcar": 569,
      "ble": 570,
      "Ġsad": 571,
      "Ġot": 572,
      "Ġfrom": 573,
      "Ġnew": 574,
      "ell": 575,
      "pped": 576,
      "Ġpr": 577,
      "Ġla": 578,
      "hat": 579,
      "Ġwhen": 580,
      "ĠL": 581,
      "Ġother": 582,
      "Ġput": 583,
      "Ġthen": 584,
      "Ġhome": 585,
      "Ġagain": 586,
      "ĠYou": 587,
      "Ġmu": 588,
      "pl": 589,
      "Ġfound": 590,
      "Ġfl": 591,
      "est": 592,
      "Ġwho": 593,
      "ought": 594,
      "Ġwal": 595,
      "Ġhug": 596,
      "ep": 597,
      "ally": 598,
      "ook": 599,
      "ss": 600,
      "Ġplaying": 601,
      "Ġdec": 602,
      "ried": 603,
      "qu": 604,
      "Ġgood": 605,
      "Ġget": 606,
      "Ġexcited": 607,
      "Ġsw": 608,
      "ach": 609,
      "Ġch": 610,
      "ous": 611,
      "ro": 612,
      "ĠE": 613,
      "Ġthings": 614,
      "ny": 615,
      "uck": 616,
      "Ġsays": 617,
      "ave": 618,
      "Ġgot": 619,
      "Ġcame": 620,
      "Ġdog": 621,
      "Ġevery": 622,
      "Ġv": 623,
      "Ġbl": 624,
      "Ġdecid": 625,
      "ĠD": 626,
      "Ġdecided": 627,
      "Ġliked": 628,
      "udd": 629,
      "Ġbec": 630,
      "ust": 631,
      "Ġdown": 632,
      "Ġscared": 633,
      "Ġone": 634,
      "us": 635,
      "Ġcare": 636,
      "Ġthan": 637,
      "ouse": 638,
      "Ġfind": 639,
      "Ġfeel": 640,
      "ax": 641,
      "ara": 642,
      "ue": 643,
      "Ġab": 644,
      "Ġtree": 645,
      "Ġyour": 646,
      "Ġdad": 647,
      "ĠF": 648,
      "ways": 649,
      "Ġpo": 650,
      "Ġta": 651,
      "ist": 652,
      "bb": 653,
      "Ġalways": 654,
      "ant": 655,
      "Ġdidn": 656,
      "ite": 657,
      "Ġabout": 658,
      "nder": 659,
      "Ġke": 660,
      "our": 661,
      "Ġgra": 662,
      "Ġlot": 663,
      "Ġmy": 664,
      "Ġtook": 665,
      "Ġthought": 666,
      "Ġkne": 667,
      "Ġlook": 668,
      "arn": 669,
      "ers": 670,
      "na": 671,
      "Ġint": 672,
      "fe": 673,
      "ĠMom": 674,
      "Ġlaug": 675,
      "Ġho": 676,
      "Ġold": 677,
      "ess": 678,
      "Ġoutside": 679,
      "ise": 680,
      "Ġtoys": 681,
      "Ġmommy": 682,
      "ched": 683,
      "eci": 684,
      "udden": 685,
      "ged": 686,
      "Ġball": 687,
      "ened": 688,
      "They": 689,
      "ap": 690,
      "Ġtake": 691,
      "Ġknow": 692,
      "Ġwill": 693,
      "Ġmore": 694,
      "uddenly": 695,
      "ret": 696,
      "Ġknew": 697,
      "ecial": 698,
      "Ġspecial": 699,
      "Ġpe": 700,
      "Ġlearn": 701,
      "Ġany": 702,
      "Ġcat": 703,
      "Ġsun": 704,
      "reat": 705,
      "fter": 706,
      "nna": 707,
      "ive": 708,
      "ma": 709,
      "Ġtr": 710,
      "Ġhow": 711,
      "ĠMax": 712,
      "ia": 713,
      "ĠSam": 714,
      "Ġtw": 715,
      "Ġshow": 716,
      "ven": 717,
      "ob": 718,
      "Ġmo": 719,
      "au": 720,
      "Ġsk": 721,
      "Ġmuch": 722,
      "Ġinto": 723,
      "Ġtold": 724,
      "ish": 725,
      "But": 726,
      "and": 727,
      "Ġcouldn": 728,
      "Ġen": 729,
      "ank": 730,
      "Ġsor": 731,
      "Ġhand": 732,
      "Ġexpl": 733,
      "Ġqu": 734,
      "Ġclo": 735,
      "Ġproud": 736,
      "ge": 737,
      "Ġop": 738,
      "Ġhouse": 739,
      "Ġsl": 740,
      "Ġinside": 741,
      "Ġif": 742,
      "Ġnever": 743,
      "Ġgave": 744,
      "Ġover": 745,
      "Ġheard": 746,
      "ty": 747,
      "Ġroom": 748,
      "Ġor": 749,
      "Ġthis": 750,
      "other": 751,
      "Ġpick": 752,
      "Ġrun": 753,
      "Ġplayed": 754,
      "dy": 755,
      "Ġstr": 756,
      "Ġtried": 757,
      "Ġwater": 758,
      "ause": 759,
      "ink": 760,
      "ion": 761,
      "Ġsorry": 762,
      "ate": 763,
      "uc": 764,
      "Ġbu": 765,
      "Ġsmall": 766,
      "ĠEvery": 767,
      "Ġeat": 768,
      "Ġfo": 769,
      "ace": 770,
      "Ġwat": 771,
      "Åĵ": 772,
      "Ġjust": 773,
      "ump": 774,
      "etter": 775,
      "Ġhugged": 776,
      "oth": 777,
      "here": 778,
      "ough": 779,
      "Ġneed": 780,
      "ĠSara": 781,
      "Ġbecause": 782,
      "Ġcom": 783,
      "ile": 784,
      "ĠJack": 785,
      "ving": 786,
      "'m": 787,
      "Mom": 788,
      "by": 789,
      "sed": 790,
      "ĠJo": 791,
      "Ġbox": 792,
      "Ġlong": 793,
      "Ġpret": 794,
      "iz": 795,
      "Ġcall": 796,
      "Ġtry": 797,
      "Tom": 798,
      "ild": 799,
      "sel": 800,
      "Ġeach": 801,
      "Ġmany": 802,
      "ak": 803,
      "Ġnice": 804,
      "lly": 805,
      "ĠÃ¢": 806,
      "ort": 807,
      "ars": 808,
      "Ġoff": 809,
      "ine": 810,
      "Ġunt": 811,
      "Yes": 812,
      "Ġflow": 813,
      "hn": 814,
      "ft": 815,
      "Ġuntil": 816,
      "Ġlaughed": 817,
      "imal": 818,
      "Ġthanked": 819,
      "aut": 820,
      "Ġdon": 821,
      "Ġad": 822,
      "Ġanimal": 823,
      "gry": 824,
      "Ġbest": 825,
      "Ġbear": 826,
      "ĠWe": 827,
      "ady": 828,
      "Th": 829,
      "urt": 830,
      "Ġlearned": 831,
      "Ġbetter": 832,
      "vent": 833,
      "em": 834,
      "ĠSo": 835,
      "Ġend": 836,
      "ĠHer": 837,
      "Ġbeaut": 838,
      "ĠAnna": 839,
      "It": 840,
      "Ġkind": 841,
      "Ġim": 842,
      "ning": 843,
      "Ġeven": 844,
      "pt": 845,
      "ĠC": 846,
      "oy": 847,
      "Ġgard": 848,
      "Ġgarden": 849,
      "Ġgr": 850,
      "ber": 851,
      "Ġdre": 852,
      "Ġby": 853,
      "ull": 854,
      "Ġfi": 855,
      "iny": 856,
      "Ġsky": 857,
      "self": 858,
      "lew": 859,
      "Ġcle": 860,
      "He": 861,
      "Ġbra": 862,
      "urp": 863,
      "Ġra": 864,
      "Ġcareful": 865,
      "Ġlots": 866,
      "Ġbeauti": 867,
      "Ġfast": 868,
      "Ġlove": 869,
      "Ġlived": 870,
      "ĠAnd": 871,
      "ase": 872,
      "Ġsn": 873,
      "Ġbeautiful": 874,
      "ĠMia": 875,
      "Ġway": 876,
      "Ġgl": 877,
      "ĠHis": 878,
      "ucy": 879,
      "ves": 880,
      "ĠFrom": 881,
      "Ġche": 882,
      "Ġcome": 883,
      "ct": 884,
      "Ġte": 885,
      "Ġstill": 886,
      "Ġjump": 887,
      "urn": 888,
      "Ġwo": 889,
      "âĤ¬â": 890,
      "Ġcalled": 891,
      "ect": 892,
      "Ġboth": 893,
      "Ġtwo": 894,
      "ane": 895,
      "Ġloud": 896,
      "igh": 897,
      "Ġar": 898,
      "Ġhard": 899,
      "wn": 900,
      "Let": 901,
      "Ġfam": 902,
      "Ġstay": 903,
      "Ġlet": 904,
      "Ġlist": 905,
      "Tim": 906,
      "Ġcol": 907,
      "hes": 908,
      "When": 909,
      "Ġrem": 910,
      "Ġcu": 911,
      "Ġunder": 912,
      "Ġits": 913,
      "Ġhurt": 914,
      "Ġdan": 915,
      "Ġbrave": 916,
      "Ġflew": 917,
      "ast": 918,
      "Ħ¢": 919,
      "âĤ¬âĦ¢": 920,
      "Ġsafe": 921,
      "Ġanimals": 922,
      "Ġfly": 923,
      "ool": 924,
      "Ġwalked": 925,
      "ied": 926,
      "ies": 927,
      "ĠThen": 928,
      "Ġfin": 929,
      "Ġdoll": 930,
      "ĠWhen": 931,
      "Ġbad": 932,
      "Ġred": 933,
      "urpr": 934,
      "What": 935,
      "Ġimp": 936,
      "Ġsoon": 937,
      "Ġsurpr": 938,
      "kay": 939,
      "ople": 940,
      "dded": 941,
      "Ġgoing": 942,
      "ock": 943,
      "ished": 944,
      "Ġpic": 945,
      "Ġexplore": 946,
      "Ġkept": 947,
      "ip": 948,
      "ummy": 949,
      "Ġbook": 950,
      "fore": 951,
      "Ġsto": 952,
      "Ġstor": 953,
      "Ġcon": 954,
      "Ġfamily": 955,
      "ised": 956,
      "Ġshould": 957,
      "led": 958,
      "be": 959,
      "Ġground": 960,
      "eet": 961,
      "Ġdra": 962,
      "Ġpeople": 963,
      "No": 964,
      "age": 965,
      "That": 966,
      "ĠP": 967,
      "Ġcry": 968,
      "xt": 969,
      "Ġangry": 970,
      "oon": 971,
      "Ġnow": 972,
      "Ġshiny": 973,
      "Ġfore": 974,
      "illy": 975,
      "Ġshare": 976,
      "iced": 977,
      "ĠLucy": 978,
      "Ġdoor": 979,
      "Ġbefore": 980,
      "Ġadvent": 981,
      "Ġkeep": 982,
      "Ġwind": 983,
      "Ġwhile": 984,
      "Ġey": 985,
      "Ġnodded": 986,
      "Ġopened": 987,
      "Ġrepl": 988,
      "Ġpretty": 989,
      "ary": 990,
      "Ġwalking": 991,
      "Ġfeeling": 992,
      "Ġwar": 993,
      "Ġclean": 994,
      "Ġfar": 995,
      "thing": 996,
      "hy": 997,
      "Ġfr": 998,
      "ĠBob": 999
    },
    "merges": [
      [
        "h",
        "e"
      ],
      [
        "Ġ",
        "t"
      ],
      [
        "Ġ",
        "a"
      ],
      [
        "Ġ",
        "s"
      ],
      [
        "Ġ",
        "w"
      ],
      [
        "n",
        "d"
      ],
      [
        "Ġt",
        "he"
      ],
      [
        "e",
        "d"
      ],
      [
        "Ġa",
        "nd"
      ],
      [
        "Ġt",
        "o"
      ],
      [
        "i",
        "n"
      ],
      [
        "Ġ",
        "b"
      ],
      [
        "Ġ",
        "h"
      ],
      [
        "Ġw",
        "a"
      ],
      [
        "r",
        "e"
      ],
      [
        "Ġ",
        "f"
      ],
      [
        "o",
        "u"
      ],
      [
        "i",
        "t"
      ],
      [
        "Ġ",
        "l"
      ],
      [
        "Ġ",
        "c"
      ],
      [
        "Ġ",
        "he"
      ],
      [
        "Ġ",
        "d"
      ],
      [
        "e",
        "r"
      ],
      [
        "Ġwa",
        "s"
      ],
      [
        "Ġ",
        "m"
      ],
      [
        "Ġ",
        "p"
      ],
      [
        "o",
        "m"
      ],
      [
        "Ġ",
        "o"
      ],
      [
        "Ġ",
        "T"
      ],
      [
        "a",
        "y"
      ],
      [
        "in",
        "g"
      ],
      [
        "a",
        "r"
      ],
      [
        "i",
        "s"
      ],
      [
        "i",
        "l"
      ],
      [
        "Ġ",
        "g"
      ],
      [
        "i",
        "d"
      ],
      [
        "a",
        "t"
      ],
      [
        "Ġs",
        "a"
      ],
      [
        "e",
        "n"
      ],
      [
        "Ġ",
        "n"
      ],
      [
        "Ġh",
        "a"
      ],
      [
        "Ġ",
        "S"
      ],
      [
        "a",
        "n"
      ],
      [
        "i",
        "m"
      ],
      [
        "ĠT",
        "he"
      ],
      [
        "o",
        "r"
      ],
      [
        "o",
        "n"
      ],
      [
        "Ġ",
        "it"
      ],
      [
        "Ġt",
        "h"
      ],
      [
        "l",
        "l"
      ],
      [
        "l",
        "e"
      ],
      [
        "Ġ",
        "H"
      ],
      [
        "Ġhe",
        "r"
      ],
      [
        "e",
        "t"
      ],
      [
        "i",
        "r"
      ],
      [
        "o",
        "t"
      ],
      [
        "ĠS",
        "he"
      ],
      [
        "ĠH",
        "e"
      ],
      [
        "Ġ",
        "in"
      ],
      [
        "e",
        "s"
      ],
      [
        "v",
        "er"
      ],
      [
        "o",
        "w"
      ],
      [
        "u",
        "t"
      ],
      [
        "c",
        "k"
      ],
      [
        "Ġ",
        "u"
      ],
      [
        "Ġ",
        "e"
      ],
      [
        "Ġsa",
        "id"
      ],
      [
        "l",
        "d"
      ],
      [
        "Ġ",
        "\""
      ],
      [
        "Ġ",
        "y"
      ],
      [
        "o",
        "o"
      ],
      [
        "i",
        "g"
      ],
      [
        "ĠThe",
        "y"
      ],
      [
        "a",
        "m"
      ],
      [
        "Ġb",
        "e"
      ],
      [
        "il",
        "y"
      ],
      [
        "Ġ",
        "r"
      ],
      [
        "Ġs",
        "t"
      ],
      [
        "c",
        "e"
      ],
      [
        "Ġs",
        "he"
      ],
      [
        "p",
        "p"
      ],
      [
        "it",
        "h"
      ],
      [
        "Ġ",
        "I"
      ],
      [
        "O",
        "n"
      ],
      [
        "k",
        "e"
      ],
      [
        "Ġw",
        "ith"
      ],
      [
        "v",
        "e"
      ],
      [
        "k",
        "ed"
      ],
      [
        "L",
        "ily"
      ],
      [
        "Ġo",
        "f"
      ],
      [
        "Ġo",
        "n"
      ],
      [
        "r",
        "i"
      ],
      [
        "Ġs",
        "o"
      ],
      [
        "Ġh",
        "is"
      ],
      [
        "Ġy",
        "ou"
      ],
      [
        "Ġp",
        "l"
      ],
      [
        "Ġd",
        "ay"
      ],
      [
        "ver",
        "y"
      ],
      [
        "n",
        "t"
      ],
      [
        "a",
        "d"
      ],
      [
        "Ġth",
        "at"
      ],
      [
        "Ġu",
        "p"
      ],
      [
        "Ġpl",
        "ay"
      ],
      [
        "s",
        "t"
      ],
      [
        "Ġha",
        "d"
      ],
      [
        "e",
        "l"
      ],
      [
        "Ġthe",
        "y"
      ],
      [
        "Ġm",
        "om"
      ],
      [
        "Ġ",
        "Lily"
      ],
      [
        "Ġw",
        "e"
      ],
      [
        "Ġf",
        "or"
      ],
      [
        "m",
        "y"
      ],
      [
        "'",
        "s"
      ],
      [
        "ou",
        "ld"
      ],
      [
        "u",
        "n"
      ],
      [
        "Ġ",
        "B"
      ],
      [
        "T",
        "he"
      ],
      [
        "it",
        "t"
      ],
      [
        "en",
        "t"
      ],
      [
        "Ġl",
        "i"
      ],
      [
        "Ġha",
        "pp"
      ],
      [
        "he",
        "r"
      ],
      [
        "ou",
        "t"
      ],
      [
        "c",
        "h"
      ],
      [
        "Ġs",
        "h"
      ],
      [
        "Ġwa",
        "nt"
      ],
      [
        "l",
        "y"
      ],
      [
        "itt",
        "le"
      ],
      [
        "ou",
        "nd"
      ],
      [
        "im",
        "e"
      ],
      [
        "a",
        "ll"
      ],
      [
        "Ġl",
        "ittle"
      ],
      [
        "Ġd",
        "o"
      ],
      [
        "e",
        "nd"
      ],
      [
        "Ġt",
        "ime"
      ],
      [
        "Ġ",
        "very"
      ],
      [
        "om",
        "e"
      ],
      [
        "Ġthe",
        "re"
      ],
      [
        "Ġw",
        "h"
      ],
      [
        "s",
        "e"
      ],
      [
        "h",
        "t"
      ],
      [
        "Ġ",
        "k"
      ],
      [
        "Ġ",
        "Ċ"
      ],
      [
        "Ġs",
        "m"
      ],
      [
        "Ġn",
        "e"
      ],
      [
        "Ġ",
        "re"
      ],
      [
        "a",
        "l"
      ],
      [
        "Ġn",
        "ot"
      ],
      [
        "Ġb",
        "ig"
      ],
      [
        "Ġhapp",
        "y"
      ],
      [
        "ri",
        "end"
      ],
      [
        "a",
        "ck"
      ],
      [
        "Ġf",
        "riend"
      ],
      [
        "Ġa",
        "s"
      ],
      [
        "Ġsa",
        "w"
      ],
      [
        "Ġb",
        "ut"
      ],
      [
        "Ġ",
        "M"
      ],
      [
        "Ġa",
        "n"
      ],
      [
        "r",
        "a"
      ],
      [
        "On",
        "e"
      ],
      [
        ".",
        "\""
      ],
      [
        "r",
        "y"
      ],
      [
        "ĠI",
        "t"
      ],
      [
        "Ġ",
        "is"
      ],
      [
        "v",
        "ed"
      ],
      [
        "!",
        "\""
      ],
      [
        "'",
        "t"
      ],
      [
        "id",
        "e"
      ],
      [
        "On",
        "ce"
      ],
      [
        "Ġl",
        "oo"
      ],
      [
        "a",
        "ke"
      ],
      [
        "u",
        "g"
      ],
      [
        "Ġwe",
        "re"
      ],
      [
        "Ġl",
        "o"
      ],
      [
        "t",
        "er"
      ],
      [
        "e",
        "c"
      ],
      [
        "o",
        "re"
      ],
      [
        "ĠT",
        "im"
      ],
      [
        "Ġb",
        "o"
      ],
      [
        "ir",
        "l"
      ],
      [
        "Ġup",
        "on"
      ],
      [
        "Ġh",
        "im"
      ],
      [
        "Ġto",
        "o"
      ],
      [
        "Ġg",
        "irl"
      ],
      [
        "Ġs",
        "e"
      ],
      [
        "Ġg",
        "o"
      ],
      [
        "Ġwant",
        "ed"
      ],
      [
        "Ġ",
        "j"
      ],
      [
        "ar",
        "d"
      ],
      [
        "Ġ",
        "out"
      ],
      [
        "il",
        "l"
      ],
      [
        "Ġsm",
        "il"
      ],
      [
        "f",
        "u"
      ],
      [
        "w",
        "ay"
      ],
      [
        "he",
        "n"
      ],
      [
        "i",
        "nd"
      ],
      [
        "Ġa",
        "t"
      ],
      [
        "Ġc",
        "ould"
      ],
      [
        "Ġs",
        "p"
      ],
      [
        "Ġthe",
        "m"
      ],
      [
        "u",
        "r"
      ],
      [
        "a",
        "in"
      ],
      [
        "Ġe",
        "x"
      ],
      [
        "Ġ",
        "A"
      ],
      [
        "Ġ",
        "J"
      ],
      [
        "Ġa",
        "re"
      ],
      [
        "Ġd",
        "id"
      ],
      [
        "Ġthe",
        "ir"
      ],
      [
        "r",
        "ound"
      ],
      [
        "Ġw",
        "ent"
      ],
      [
        "he",
        "d"
      ],
      [
        "Ġn",
        "am"
      ],
      [
        "i",
        "c"
      ],
      [
        "ar",
        "t"
      ],
      [
        "l",
        "p"
      ],
      [
        "r",
        "om"
      ],
      [
        "Ġc",
        "an"
      ],
      [
        "Ġha",
        "ve"
      ],
      [
        "Ġhe",
        "lp"
      ],
      [
        "h",
        "ing"
      ],
      [
        "?",
        "\""
      ],
      [
        "fu",
        "l"
      ],
      [
        "Ġfriend",
        "s"
      ],
      [
        "ig",
        "ht"
      ],
      [
        "Ġa",
        "ll"
      ],
      [
        "u",
        "m"
      ],
      [
        "Ġk",
        "n"
      ],
      [
        "oo",
        "d"
      ],
      [
        "on",
        "e"
      ],
      [
        "ar",
        "k"
      ],
      [
        "Ġb",
        "ack"
      ],
      [
        "Ġnam",
        "ed"
      ],
      [
        "ĠB",
        "en"
      ],
      [
        "Ġc",
        "l"
      ],
      [
        "Ġsmil",
        "ed"
      ],
      [
        "a",
        "re"
      ],
      [
        "Ġf",
        "un"
      ],
      [
        "ou",
        "g"
      ],
      [
        "Ġas",
        "ked"
      ],
      [
        "Ġn",
        "o"
      ],
      [
        "Ġlo",
        "ved"
      ],
      [
        "Ã",
        "¢"
      ],
      [
        "â",
        "Ĥ"
      ],
      [
        "âĤ",
        "¬"
      ],
      [
        "Ġ",
        "One"
      ],
      [
        "el",
        "t"
      ],
      [
        "Ġl",
        "e"
      ],
      [
        "ĠTim",
        "my"
      ],
      [
        "Ġf",
        "elt"
      ],
      [
        "Ġs",
        "c"
      ],
      [
        "o",
        "p"
      ],
      [
        "i",
        "ck"
      ],
      [
        "Ġa",
        "round"
      ],
      [
        "Ġloo",
        "ked"
      ],
      [
        "s",
        "ide"
      ],
      [
        "Y",
        "ou"
      ],
      [
        "Ġa",
        "l"
      ],
      [
        "am",
        "e"
      ],
      [
        "g",
        "et"
      ],
      [
        "ĠT",
        "om"
      ],
      [
        "Ġf",
        "e"
      ],
      [
        "Ġto",
        "y"
      ],
      [
        "Ġb",
        "ir"
      ],
      [
        "om",
        "et"
      ],
      [
        "Ġbo",
        "y"
      ],
      [
        "Ġm",
        "an"
      ],
      [
        "u",
        "re"
      ],
      [
        "Ġse",
        "e"
      ],
      [
        "Ġm",
        "e"
      ],
      [
        "Ġli",
        "ke"
      ],
      [
        "Ġr",
        "o"
      ],
      [
        "Ġb",
        "r"
      ],
      [
        "Ġst",
        "art"
      ],
      [
        "Ġw",
        "ould"
      ],
      [
        "a",
        "s"
      ],
      [
        "Ġs",
        "ome"
      ],
      [
        "Ġbir",
        "d"
      ],
      [
        "d",
        "d"
      ],
      [
        "i",
        "ce"
      ],
      [
        "Ġs",
        "ay"
      ],
      [
        "on",
        "g"
      ],
      [
        "Ġ",
        "W"
      ],
      [
        "Ġs",
        "omet"
      ],
      [
        "get",
        "her"
      ],
      [
        "Ġw",
        "or"
      ],
      [
        "re",
        "e"
      ],
      [
        "k",
        "ing"
      ],
      [
        "Ġa",
        "g"
      ],
      [
        "a",
        "g"
      ],
      [
        ",",
        "\""
      ],
      [
        "ing",
        "s"
      ],
      [
        "Ġwh",
        "at"
      ],
      [
        "Ġto",
        "gether"
      ],
      [
        "ad",
        "e"
      ],
      [
        "ow",
        "n"
      ],
      [
        "Ġf",
        "a"
      ],
      [
        "Ġstart",
        "ed"
      ],
      [
        "i",
        "e"
      ],
      [
        "ar",
        "ed"
      ],
      [
        "Ġa",
        "way"
      ],
      [
        "Ġm",
        "ake"
      ],
      [
        "it",
        "ed"
      ],
      [
        "ou",
        "d"
      ],
      [
        "Ġsomet",
        "hing"
      ],
      [
        "Ġr",
        "an"
      ],
      [
        "Ġp",
        "ark"
      ],
      [
        "i",
        "f"
      ],
      [
        "ĠB",
        "ut"
      ],
      [
        "Ġex",
        "c"
      ],
      [
        "Ġc",
        "o"
      ],
      [
        "Ġm",
        "ade"
      ],
      [
        "Ġc",
        "ar"
      ],
      [
        "b",
        "le"
      ],
      [
        "Ġsa",
        "d"
      ],
      [
        "Ġo",
        "t"
      ],
      [
        "Ġf",
        "rom"
      ],
      [
        "Ġne",
        "w"
      ],
      [
        "e",
        "ll"
      ],
      [
        "pp",
        "ed"
      ],
      [
        "Ġp",
        "r"
      ],
      [
        "Ġl",
        "a"
      ],
      [
        "h",
        "at"
      ],
      [
        "Ġw",
        "hen"
      ],
      [
        "Ġ",
        "L"
      ],
      [
        "Ġot",
        "her"
      ],
      [
        "Ġp",
        "ut"
      ],
      [
        "Ġthe",
        "n"
      ],
      [
        "Ġh",
        "ome"
      ],
      [
        "Ġag",
        "ain"
      ],
      [
        "Ġ",
        "You"
      ],
      [
        "Ġm",
        "u"
      ],
      [
        "p",
        "l"
      ],
      [
        "Ġf",
        "ound"
      ],
      [
        "Ġf",
        "l"
      ],
      [
        "es",
        "t"
      ],
      [
        "Ġwh",
        "o"
      ],
      [
        "oug",
        "ht"
      ],
      [
        "Ġwa",
        "l"
      ],
      [
        "Ġh",
        "ug"
      ],
      [
        "e",
        "p"
      ],
      [
        "all",
        "y"
      ],
      [
        "oo",
        "k"
      ],
      [
        "s",
        "s"
      ],
      [
        "Ġplay",
        "ing"
      ],
      [
        "Ġd",
        "ec"
      ],
      [
        "ri",
        "ed"
      ],
      [
        "q",
        "u"
      ],
      [
        "Ġg",
        "ood"
      ],
      [
        "Ġg",
        "et"
      ],
      [
        "Ġexc",
        "ited"
      ],
      [
        "Ġs",
        "w"
      ],
      [
        "a",
        "ch"
      ],
      [
        "Ġc",
        "h"
      ],
      [
        "ou",
        "s"
      ],
      [
        "r",
        "o"
      ],
      [
        "Ġ",
        "E"
      ],
      [
        "Ġth",
        "ings"
      ],
      [
        "n",
        "y"
      ],
      [
        "u",
        "ck"
      ],
      [
        "Ġsay",
        "s"
      ],
      [
        "a",
        "ve"
      ],
      [
        "Ġg",
        "ot"
      ],
      [
        "Ġc",
        "ame"
      ],
      [
        "Ġdo",
        "g"
      ],
      [
        "Ġe",
        "very"
      ],
      [
        "Ġ",
        "v"
      ],
      [
        "Ġb",
        "l"
      ],
      [
        "Ġdec",
        "id"
      ],
      [
        "Ġ",
        "D"
      ],
      [
        "Ġdecid",
        "ed"
      ],
      [
        "Ġli",
        "ked"
      ],
      [
        "u",
        "dd"
      ],
      [
        "Ġbe",
        "c"
      ],
      [
        "u",
        "st"
      ],
      [
        "Ġd",
        "own"
      ],
      [
        "Ġsc",
        "ared"
      ],
      [
        "Ġon",
        "e"
      ],
      [
        "u",
        "s"
      ],
      [
        "Ġc",
        "are"
      ],
      [
        "Ġth",
        "an"
      ],
      [
        "ou",
        "se"
      ],
      [
        "Ġf",
        "ind"
      ],
      [
        "Ġfe",
        "el"
      ],
      [
        "a",
        "x"
      ],
      [
        "ar",
        "a"
      ],
      [
        "u",
        "e"
      ],
      [
        "Ġa",
        "b"
      ],
      [
        "Ġt",
        "ree"
      ],
      [
        "Ġyou",
        "r"
      ],
      [
        "Ġd",
        "ad"
      ],
      [
        "Ġ",
        "F"
      ],
      [
        "way",
        "s"
      ],
      [
        "Ġp",
        "o"
      ],
      [
        "Ġt",
        "a"
      ],
      [
        "is",
        "t"
      ],
      [
        "b",
        "b"
      ],
      [
        "Ġal",
        "ways"
      ],
      [
        "an",
        "t"
      ],
      [
        "Ġdid",
        "n"
      ],
      [
        "it",
        "e"
      ],
      [
        "Ġab",
        "out"
      ],
      [
        "nd",
        "er"
      ],
      [
        "Ġ",
        "ke"
      ],
      [
        "ou",
        "r"
      ],
      [
        "Ġg",
        "ra"
      ],
      [
        "Ġl",
        "ot"
      ],
      [
        "Ġm",
        "y"
      ],
      [
        "Ġtoo",
        "k"
      ],
      [
        "Ġth",
        "ought"
      ],
      [
        "Ġkn",
        "e"
      ],
      [
        "Ġloo",
        "k"
      ],
      [
        "ar",
        "n"
      ],
      [
        "er",
        "s"
      ],
      [
        "n",
        "a"
      ],
      [
        "Ġin",
        "t"
      ],
      [
        "f",
        "e"
      ],
      [
        "ĠM",
        "om"
      ],
      [
        "Ġla",
        "ug"
      ],
      [
        "Ġh",
        "o"
      ],
      [
        "Ġo",
        "ld"
      ],
      [
        "es",
        "s"
      ],
      [
        "Ġout",
        "side"
      ],
      [
        "is",
        "e"
      ],
      [
        "Ġtoy",
        "s"
      ],
      [
        "Ġmom",
        "my"
      ],
      [
        "c",
        "hed"
      ],
      [
        "ec",
        "i"
      ],
      [
        "udd",
        "en"
      ],
      [
        "g",
        "ed"
      ],
      [
        "Ġb",
        "all"
      ],
      [
        "en",
        "ed"
      ],
      [
        "The",
        "y"
      ],
      [
        "a",
        "p"
      ],
      [
        "Ġt",
        "ake"
      ],
      [
        "Ġkn",
        "ow"
      ],
      [
        "Ġw",
        "ill"
      ],
      [
        "Ġm",
        "ore"
      ],
      [
        "udden",
        "ly"
      ],
      [
        "re",
        "t"
      ],
      [
        "Ġkne",
        "w"
      ],
      [
        "eci",
        "al"
      ],
      [
        "Ġsp",
        "ecial"
      ],
      [
        "Ġp",
        "e"
      ],
      [
        "Ġle",
        "arn"
      ],
      [
        "Ġan",
        "y"
      ],
      [
        "Ġc",
        "at"
      ],
      [
        "Ġs",
        "un"
      ],
      [
        "re",
        "at"
      ],
      [
        "f",
        "ter"
      ],
      [
        "n",
        "na"
      ],
      [
        "i",
        "ve"
      ],
      [
        "m",
        "a"
      ],
      [
        "Ġt",
        "r"
      ],
      [
        "Ġh",
        "ow"
      ],
      [
        "ĠM",
        "ax"
      ],
      [
        "i",
        "a"
      ],
      [
        "ĠS",
        "am"
      ],
      [
        "Ġt",
        "w"
      ],
      [
        "Ġsh",
        "ow"
      ],
      [
        "v",
        "en"
      ],
      [
        "o",
        "b"
      ],
      [
        "Ġm",
        "o"
      ],
      [
        "a",
        "u"
      ],
      [
        "Ġs",
        "k"
      ],
      [
        "Ġmu",
        "ch"
      ],
      [
        "Ġint",
        "o"
      ],
      [
        "Ġto",
        "ld"
      ],
      [
        "is",
        "h"
      ],
      [
        "B",
        "ut"
      ],
      [
        "a",
        "nd"
      ],
      [
        "Ġcould",
        "n"
      ],
      [
        "Ġ",
        "en"
      ],
      [
        "an",
        "k"
      ],
      [
        "Ġs",
        "or"
      ],
      [
        "Ġha",
        "nd"
      ],
      [
        "Ġex",
        "pl"
      ],
      [
        "Ġ",
        "qu"
      ],
      [
        "Ġcl",
        "o"
      ],
      [
        "Ġpr",
        "oud"
      ],
      [
        "g",
        "e"
      ],
      [
        "Ġo",
        "p"
      ],
      [
        "Ġh",
        "ouse"
      ],
      [
        "Ġs",
        "l"
      ],
      [
        "Ġin",
        "side"
      ],
      [
        "Ġ",
        "if"
      ],
      [
        "Ġne",
        "ver"
      ],
      [
        "Ġg",
        "ave"
      ],
      [
        "Ġo",
        "ver"
      ],
      [
        "Ġhe",
        "ard"
      ],
      [
        "t",
        "y"
      ],
      [
        "Ġro",
        "om"
      ],
      [
        "Ġo",
        "r"
      ],
      [
        "Ġth",
        "is"
      ],
      [
        "ot",
        "her"
      ],
      [
        "Ġp",
        "ick"
      ],
      [
        "Ġr",
        "un"
      ],
      [
        "Ġplay",
        "ed"
      ],
      [
        "d",
        "y"
      ],
      [
        "Ġst",
        "r"
      ],
      [
        "Ġt",
        "ried"
      ],
      [
        "Ġwa",
        "ter"
      ],
      [
        "au",
        "se"
      ],
      [
        "in",
        "k"
      ],
      [
        "i",
        "on"
      ],
      [
        "Ġsor",
        "ry"
      ],
      [
        "at",
        "e"
      ],
      [
        "u",
        "c"
      ],
      [
        "Ġb",
        "u"
      ],
      [
        "Ġsm",
        "all"
      ],
      [
        "ĠE",
        "very"
      ],
      [
        "Ġe",
        "at"
      ],
      [
        "Ġf",
        "o"
      ],
      [
        "a",
        "ce"
      ],
      [
        "Ġwa",
        "t"
      ],
      [
        "Å",
        "ĵ"
      ],
      [
        "Ġj",
        "ust"
      ],
      [
        "um",
        "p"
      ],
      [
        "et",
        "ter"
      ],
      [
        "Ġhug",
        "ged"
      ],
      [
        "ot",
        "h"
      ],
      [
        "he",
        "re"
      ],
      [
        "oug",
        "h"
      ],
      [
        "Ġne",
        "ed"
      ],
      [
        "ĠS",
        "ara"
      ],
      [
        "Ġbec",
        "ause"
      ],
      [
        "Ġc",
        "om"
      ],
      [
        "il",
        "e"
      ],
      [
        "ĠJ",
        "ack"
      ],
      [
        "v",
        "ing"
      ],
      [
        "'",
        "m"
      ],
      [
        "M",
        "om"
      ],
      [
        "b",
        "y"
      ],
      [
        "s",
        "ed"
      ],
      [
        "ĠJ",
        "o"
      ],
      [
        "Ġbo",
        "x"
      ],
      [
        "Ġl",
        "ong"
      ],
      [
        "Ġp",
        "ret"
      ],
      [
        "i",
        "z"
      ],
      [
        "Ġc",
        "all"
      ],
      [
        "Ġt",
        "ry"
      ],
      [
        "T",
        "om"
      ],
      [
        "il",
        "d"
      ],
      [
        "s",
        "el"
      ],
      [
        "Ġe",
        "ach"
      ],
      [
        "Ġman",
        "y"
      ],
      [
        "a",
        "k"
      ],
      [
        "Ġn",
        "ice"
      ],
      [
        "ll",
        "y"
      ],
      [
        "Ġ",
        "Ã¢"
      ],
      [
        "or",
        "t"
      ],
      [
        "ar",
        "s"
      ],
      [
        "Ġof",
        "f"
      ],
      [
        "in",
        "e"
      ],
      [
        "Ġu",
        "nt"
      ],
      [
        "Y",
        "es"
      ],
      [
        "Ġfl",
        "ow"
      ],
      [
        "h",
        "n"
      ],
      [
        "f",
        "t"
      ],
      [
        "Ġunt",
        "il"
      ],
      [
        "Ġlaug",
        "hed"
      ],
      [
        "im",
        "al"
      ],
      [
        "Ġthan",
        "ked"
      ],
      [
        "a",
        "ut"
      ],
      [
        "Ġd",
        "on"
      ],
      [
        "Ġa",
        "d"
      ],
      [
        "Ġan",
        "imal"
      ],
      [
        "g",
        "ry"
      ],
      [
        "Ġb",
        "est"
      ],
      [
        "Ġbe",
        "ar"
      ],
      [
        "ĠW",
        "e"
      ],
      [
        "ad",
        "y"
      ],
      [
        "T",
        "h"
      ],
      [
        "ur",
        "t"
      ],
      [
        "Ġlearn",
        "ed"
      ],
      [
        "Ġb",
        "etter"
      ],
      [
        "v",
        "ent"
      ],
      [
        "e",
        "m"
      ],
      [
        "ĠS",
        "o"
      ],
      [
        "Ġe",
        "nd"
      ],
      [
        "ĠH",
        "er"
      ],
      [
        "Ġbe",
        "aut"
      ],
      [
        "ĠA",
        "nna"
      ],
      [
        "I",
        "t"
      ],
      [
        "Ġk",
        "ind"
      ],
      [
        "Ġ",
        "im"
      ],
      [
        "n",
        "ing"
      ],
      [
        "Ġe",
        "ven"
      ],
      [
        "p",
        "t"
      ],
      [
        "Ġ",
        "C"
      ],
      [
        "o",
        "y"
      ],
      [
        "Ġg",
        "ard"
      ],
      [
        "Ġgard",
        "en"
      ],
      [
        "Ġg",
        "r"
      ],
      [
        "b",
        "er"
      ],
      [
        "Ġd",
        "re"
      ],
      [
        "Ġb",
        "y"
      ],
      [
        "u",
        "ll"
      ],
      [
        "Ġf",
        "i"
      ],
      [
        "in",
        "y"
      ],
      [
        "Ġsk",
        "y"
      ],
      [
        "sel",
        "f"
      ],
      [
        "le",
        "w"
      ],
      [
        "Ġc",
        "le"
      ],
      [
        "H",
        "e"
      ],
      [
        "Ġb",
        "ra"
      ],
      [
        "ur",
        "p"
      ],
      [
        "Ġr",
        "a"
      ],
      [
        "Ġcare",
        "ful"
      ],
      [
        "Ġlot",
        "s"
      ],
      [
        "Ġbeaut",
        "i"
      ],
      [
        "Ġfa",
        "st"
      ],
      [
        "Ġlo",
        "ve"
      ],
      [
        "Ġli",
        "ved"
      ],
      [
        "ĠA",
        "nd"
      ],
      [
        "a",
        "se"
      ],
      [
        "Ġs",
        "n"
      ],
      [
        "Ġbeauti",
        "ful"
      ],
      [
        "ĠM",
        "ia"
      ],
      [
        "Ġwa",
        "y"
      ],
      [
        "Ġg",
        "l"
      ],
      [
        "ĠH",
        "is"
      ],
      [
        "uc",
        "y"
      ],
      [
        "v",
        "es"
      ],
      [
        "ĠF",
        "rom"
      ],
      [
        "Ġc",
        "he"
      ],
      [
        "Ġc",
        "ome"
      ],
      [
        "c",
        "t"
      ],
      [
        "Ġt",
        "e"
      ],
      [
        "Ġst",
        "ill"
      ],
      [
        "Ġj",
        "ump"
      ],
      [
        "ur",
        "n"
      ],
      [
        "Ġw",
        "o"
      ],
      [
        "âĤ¬",
        "â"
      ],
      [
        "Ġcall",
        "ed"
      ],
      [
        "ec",
        "t"
      ],
      [
        "Ġb",
        "oth"
      ],
      [
        "Ġtw",
        "o"
      ],
      [
        "an",
        "e"
      ],
      [
        "Ġl",
        "oud"
      ],
      [
        "ig",
        "h"
      ],
      [
        "Ġa",
        "r"
      ],
      [
        "Ġh",
        "ard"
      ],
      [
        "w",
        "n"
      ],
      [
        "L",
        "et"
      ],
      [
        "Ġf",
        "am"
      ],
      [
        "Ġst",
        "ay"
      ],
      [
        "Ġl",
        "et"
      ],
      [
        "Ġl",
        "ist"
      ],
      [
        "T",
        "im"
      ],
      [
        "Ġco",
        "l"
      ],
      [
        "he",
        "s"
      ],
      [
        "W",
        "hen"
      ],
      [
        "Ġre",
        "m"
      ],
      [
        "Ġc",
        "u"
      ],
      [
        "Ġu",
        "nder"
      ],
      [
        "Ġit",
        "s"
      ],
      [
        "Ġh",
        "urt"
      ],
      [
        "Ġd",
        "an"
      ],
      [
        "Ġbra",
        "ve"
      ],
      [
        "Ġf",
        "lew"
      ],
      [
        "a",
        "st"
      ],
      [
        "Ħ",
        "¢"
      ],
      [
        "âĤ¬â",
        "Ħ¢"
      ],
      [
        "Ġsa",
        "fe"
      ],
      [
        "Ġanimal",
        "s"
      ],
      [
        "Ġf",
        "ly"
      ],
      [
        "oo",
        "l"
      ],
      [
        "Ġwal",
        "ked"
      ],
      [
        "i",
        "ed"
      ],
      [
        "i",
        "es"
      ],
      [
        "ĠThe",
        "n"
      ],
      [
        "Ġf",
        "in"
      ],
      [
        "Ġdo",
        "ll"
      ],
      [
        "ĠW",
        "hen"
      ],
      [
        "Ġb",
        "ad"
      ],
      [
        "Ġr",
        "ed"
      ],
      [
        "urp",
        "r"
      ],
      [
        "W",
        "hat"
      ],
      [
        "Ġim",
        "p"
      ],
      [
        "Ġso",
        "on"
      ],
      [
        "Ġs",
        "urpr"
      ],
      [
        "k",
        "ay"
      ],
      [
        "op",
        "le"
      ],
      [
        "dd",
        "ed"
      ],
      [
        "Ġgo",
        "ing"
      ],
      [
        "o",
        "ck"
      ],
      [
        "is",
        "hed"
      ],
      [
        "Ġp",
        "ic"
      ],
      [
        "Ġexpl",
        "ore"
      ],
      [
        "Ġke",
        "pt"
      ],
      [
        "i",
        "p"
      ],
      [
        "um",
        "my"
      ],
      [
        "Ġb",
        "ook"
      ],
      [
        "f",
        "ore"
      ],
      [
        "Ġst",
        "o"
      ],
      [
        "Ġst",
        "or"
      ],
      [
        "Ġc",
        "on"
      ],
      [
        "Ġfam",
        "ily"
      ],
      [
        "is",
        "ed"
      ],
      [
        "Ġsh",
        "ould"
      ],
      [
        "l",
        "ed"
      ],
      [
        "b",
        "e"
      ],
      [
        "Ġg",
        "round"
      ],
      [
        "e",
        "et"
      ],
      [
        "Ġd",
        "ra"
      ],
      [
        "Ġpe",
        "ople"
      ],
      [
        "N",
        "o"
      ],
      [
        "ag",
        "e"
      ],
      [
        "T",
        "hat"
      ],
      [
        "Ġ",
        "P"
      ],
      [
        "Ġc",
        "ry"
      ],
      [
        "x",
        "t"
      ],
      [
        "Ġan",
        "gry"
      ],
      [
        "o",
        "on"
      ],
      [
        "Ġn",
        "ow"
      ],
      [
        "Ġsh",
        "iny"
      ],
      [
        "Ġf",
        "ore"
      ],
      [
        "il",
        "ly"
      ],
      [
        "Ġsh",
        "are"
      ],
      [
        "ic",
        "ed"
      ],
      [
        "ĠL",
        "ucy"
      ],
      [
        "Ġdo",
        "or"
      ],
      [
        "Ġbe",
        "fore"
      ],
      [
        "Ġad",
        "vent"
      ],
      [
        "Ġke",
        "ep"
      ],
      [
        "Ġw",
        "ind"
      ],
      [
        "Ġwh",
        "ile"
      ],
      [
        "Ġe",
        "y"
      ],
      [
        "Ġno",
        "dded"
      ],
      [
        "Ġop",
        "ened"
      ],
      [
        "Ġre",
        "pl"
      ],
      [
        "Ġpret",
        "ty"
      ],
      [
        "ar",
        "y"
      ],
      [
        "Ġwal",
        "king"
      ],
      [
        "Ġfeel",
        "ing"
      ],
      [
        "Ġwa",
        "r"
      ],
      [
        "Ġcle",
        "an"
      ],
      [
        "Ġf",
        "ar"
      ],
      [
        "t",
        "hing"
      ],
      [
        "h",
        "y"
      ],
      [
        "Ġf",
        "r"
      ],
      [
        "ĠB",
        "ob"
      ]
    ]
  }
}